<pad>	0
<s>	0
</s>	0
<unk>	0
▁	-2.95824
,	-3.63027
.	-3.78501
▁a	-4.17362
▁de	-4.20559
s	-4.20588
▁que	-4.26425
の	-4.31469
▁e	-4.69264
▁o	-4.72217
を	-4.72552
が	-4.81996
は	-4.82019
に	-4.94287
▁é	-5.20169
-	-5.23058
▁um	-5.31768
▁para	-5.34268
▁uma	-5.37803
と	-5.5088
で	-5.55265
▁da	-5.58702
▁do	-5.59837
▁em	-5.62851
▁não	-5.66749
▁"	-5.6694
r	-5.67715
▁os	-5.67884
▁com	-5.749
です	-5.76894
?	-5.80272
)	-5.80952
▁as	-5.88208
▁(	-5.89777
m	-5.93996
▁se	-6.00301
▁como	-6.0577
や	-6.06336
▁mais	-6.07376
▁no	-6.07537
:	-6.08914
も	-6.09501
▁na	-6.14705
▁por	-6.2149
から	-6.30202
▁E	-6.30454
」	-6.325
▁A	-6.33012
mos	-6.35284
、	-6.37423
se	-6.39416
し	-6.40879
▁この	-6.41107
か	-6.46316
▁「	-6.52311
do	-6.53852
▁O	-6.55069
な	-6.55407
u	-6.56326
▁à	-6.56363
▁muito	-6.57837
▁pessoas	-6.62848
する	-6.65223
▁ou	-6.66329
▁eu	-6.66771
▁isso	-6.70185
▁Mas	-6.70723
▁mas	-6.70942
▁são	-6.71581
▁dos	-6.73497
▁ser	-6.73594
▁—	-6.75468
・	-6.75718
a	-6.78892
da	-6.79746
▁fazer	-6.8122
▁ao	-6.81643
ます	-6.82833
me	-6.83526
das	-6.8787
o	-6.87897
た	-6.88697
▁nos	-6.88814
▁その	-6.90937
ました	-6.9108
る	-6.94079
i	-6.95209
▁anos	-6.98116
▁quando	-6.99196
"	-7.00263
▁porque	-7.01314
い	-7.023
▁está	-7.02565
▁É	-7.0365
▁そして	-7.04453
▁há	-7.04823
て	-7.05032
には	-7.07287
のです	-7.07524
した	-7.10207
1	-7.13157
▁sobre	-7.15138
という	-7.16152
▁私は	-7.1617
して	-7.16521
▁era	-7.16522
Risos	-7.16818
ção	-7.17633
em	-7.19197
▁esta	-7.20562
り	-7.20592
▁isto	-7.20641
l	-7.20711
▁foi	-7.21562
va	-7.21835
▁mundo	-7.23272
mente	-7.23425
笑	-7.23579
では	-7.23854
lo	-7.2529
▁これは	-7.25494
nos	-7.26463
▁Não	-7.26554
でした	-7.27569
します	-7.27979
la	-7.28484
▁minha	-7.29689
▁todos	-7.30378
ndo	-7.31212
▁forma	-7.32473
2	-7.32723
am	-7.34051
dos	-7.34273
e	-7.3442
▁coisas	-7.34699
しました	-7.34754
n	-7.35016
。	-7.36427
▁este	-7.3678
▁ver	-7.36839
▁ter	-7.37156
▁estão	-7.37866
ram	-7.38194
▁vida	-7.39915
▁coisa	-7.4031
ス	-7.41331
▁também	-7.41729
▁meu	-7.4231
「	-7.4255
▁tem	-7.43338
▁me	-7.43794
▁nós	-7.44765
".	-7.45382
▁ele	-7.46237
▁mesmo	-7.46344
のは	-7.47201
く	-7.47577
▁Se	-7.48084
▁しかし	-7.48596
▁temos	-7.49452
的な	-7.49455
▁sua	-7.50813
es	-7.51389
▁Eu	-7.51472
人	-7.51565
▁tempo	-7.51864
ら	-7.52662
▁pode	-7.54602
でしょう	-7.55272
▁nossa	-7.55318
p	-7.55459
▁vez	-7.5602
▁aqui	-7.56494
▁têm	-7.57153
▁re	-7.57452
ar	-7.58098
to	-7.59387
▁num	-7.60423
▁でも	-7.60728
▁podemos	-7.61062
te	-7.61284
▁só	-7.62357
ta	-7.63269
として	-7.64486
だ	-7.6492
って	-7.65368
年	-7.66416
▁nosso	-7.6654
ra	-7.67977
ル	-7.68013
▁podem	-7.68212
しています	-7.6919
t	-7.69269
▁eles	-7.69324
á	-7.69436
―	-7.69523
▁onde	-7.69681
さ	-7.69809
▁tinha	-7.69965
▁numa	-7.70069
▁1	-7.71271
▁até	-7.71392
▁apenas	-7.72336
."	-7.72798
▁dizer	-7.72896
▁depois	-7.73678
▁Os	-7.73749
▁seu	-7.73767
3	-7.74719
ク	-7.74905
ています	-7.75792
まで	-7.75809
▁estava	-7.76493
ti	-7.76517
▁Por	-7.77781
▁pela	-7.7796
でも	-7.78321
▁Então	-7.78658
mo	-7.78879
Aplausos	-7.79437
▁disse	-7.79522
ね	-7.79584
拍手	-7.80395
ない	-7.80595
▁parte	-7.80633
de	-7.80694
この	-7.8117
▁tudo	-7.81553
ções	-7.81575
について	-7.83183
つ	-7.83499
▁Quando	-7.8488
▁in	-7.85477
na	-7.86185
b	-7.87432
もの	-7.88052
g	-7.88177
▁já	-7.886
▁entre	-7.88649
ro	-7.88691
í	-7.88723
▁bem	-7.89125
▁私の	-7.89167
にも	-7.89507
す	-7.89725
ri	-7.9009
A	-7.90504
ia	-7.91108
ー	-7.92011
▁nas	-7.92131
no	-7.92244
き	-7.92561
力	-7.92991
▁2	-7.93141
できる	-7.93697
があります	-7.93908
is	-7.93941
le	-7.94051
している	-7.9423
▁sem	-7.9425
...	-7.94584
▁それは	-7.94793
時	-7.94918
▁trabalho	-7.9517
こと	-7.95227
li	-7.95991
ce	-7.96144
▁pelo	-7.96158
▁dia	-7.96599
▁falar	-7.96684
▁agora	-7.96906
▁Isto	-7.97145
▁vezes	-7.97247
▁qualquer	-7.97375
ca	-7.9738
▁grande	-7.97554
ことを	-7.97622
▁cada	-7.9779
▁tão	-7.97811
ou	-7.97985
▁私たちは	-7.98567
ラ	-7.98695
▁melhor	-7.98787
います	-7.99288
リ	-7.99371
!	-7.99393
的	-7.9947
sa	-7.99659
▁aos	-7.99765
▁As	-7.99803
▁tipo	-8.00311
▁estamos	-8.00351
なら	-8.00585
vos	-8.00643
▁ela	-8.00922
▁assim	-8.0186
だと	-8.02074
▁ainda	-8.02451
os	-8.02577
▁私が	-8.02668
ア	-8.02836
う	-8.03152
y	-8.03341
nte	-8.03349
み	-8.0339
人の	-8.03829
ci	-8.04034
わ	-8.04115
c	-8.04167
ão	-8.04978
▁dois	-8.05032
?"	-8.05648
▁Há	-8.06486
▁todas	-8.06646
▁todo	-8.06804
性	-8.06889
者	-8.07938
ド	-8.08028
▁Na	-8.08135
▁milhões	-8.08554
された	-8.08595
é	-8.08862
ria	-8.09117
▁De	-8.09185
った	-8.09288
▁vocês	-8.09429
di	-8.09565
re	-8.09577
ト	-8.09683
つの	-8.10697
d	-8.10729
▁história	-8.10959
大	-8.11046
ン	-8.11239
▁sempre	-8.11331
▁3	-8.11394
のか	-8.11937
その	-8.12028
▁outros	-8.12239
rem	-8.12295
ma	-8.12903
▁vai	-8.13411
からです	-8.13805
ことです	-8.13823
ga	-8.13833
▁estas	-8.13927
よ	-8.14398
▁maior	-8.14739
▁Em	-8.14767
pa	-8.15594
4	-8.16303
",	-8.16605
O	-8.16669
▁pouco	-8.17119
とは	-8.17252
co	-8.17273
go	-8.17426
ま	-8.17921
▁pensar	-8.1812
▁Esta	-8.18225
お	-8.1829
▁No	-8.18313
▁casa	-8.1834
5	-8.18525
いた	-8.18769
より	-8.19273
▁três	-8.19287
▁lá	-8.19603
▁durante	-8.19785
なのです	-8.19967
▁toda	-8.20792
▁problema	-8.21294
ものです	-8.21296
んです	-8.21313
▁Como	-8.21358
である	-8.2205
▁nossos	-8.22387
ように	-8.22637
▁Este	-8.2273
res	-8.22844
▁menos	-8.22934
ている	-8.23015
lhe	-8.23585
▁ideia	-8.23775
分	-8.2438
▁hoje	-8.24412
▁algo	-8.24448
▁seus	-8.24603
下	-8.24637
ロ	-8.24718
▁verdade	-8.24769
ve	-8.25004
er	-8.25202
▁importante	-8.25625
考え	-8.25665
によって	-8.25793
▁estes	-8.26245
C	-8.26407
▁outra	-8.2672
so	-8.26796
人が	-8.27187
▁muitas	-8.27424
▁ano	-8.27611
▁seja	-8.27826
(	-8.27918
▁C	-8.28103
など	-8.28546
日	-8.2862
▁essa	-8.28787
見	-8.29217
6	-8.29427
ne	-8.29508
▁exemplo	-8.29747
▁10	-8.29854
▁outro	-8.29941
され	-8.30128
的に	-8.30312
▁água	-8.30885
as	-8.31017
ですが	-8.3111
がある	-8.31549
▁lado	-8.31727
▁duas	-8.31775
▁これが	-8.32207
▁nunca	-8.32272
▁outras	-8.32651
que	-8.32672
いる	-8.32703
▁mim	-8.32786
いました	-8.32999
▁sistema	-8.3343
▁♫	-8.33464
ミ	-8.33816
タ	-8.33904
出	-8.33953
え	-8.34094
;	-8.34281
vo	-8.34284
んだ	-8.34517
▁cérebro	-8.34559
ません	-8.34625
フ	-8.35038
人は	-8.35122
話	-8.35157
▁estar	-8.35678
時間	-8.35977
▁primeira	-8.3645
▁con	-8.36584
カ	-8.36673
ことは	-8.36806
vam	-8.37037
事	-8.37163
▁ir	-8.37348
め	-8.37646
▁ある	-8.37759
いて	-8.37775
物	-8.37799
▁criar	-8.37935
▁diferentes	-8.38192
への	-8.38246
国	-8.38272
イ	-8.38391
ような	-8.38416
▁pessoa	-8.38469
ほど	-8.3865
ブ	-8.38743
▁usar	-8.38761
▁mulheres	-8.39113
?」	-8.39645
h	-8.39706
▁Portanto	-8.39725
▁彼は	-8.39863
ということです	-8.4006
ntes	-8.40128
マ	-8.40284
▁つまり	-8.4031
▁nada	-8.40361
E	-8.40568
▁esse	-8.40575
▁volta	-8.4058
ことが	-8.40611
ある	-8.40628
▁contra	-8.40651
▁Porque	-8.41043
一	-8.41473
dor	-8.41629
▁muitos	-8.41714
回	-8.41837
上	-8.42056
にある	-8.42148
される	-8.42216
▁Para	-8.42478
▁そこで	-8.42589
だけ	-8.43197
ので	-8.43222
▁それが	-8.43739
になる	-8.43752
S	-8.44176
▁tentar	-8.44424
▁Uma	-8.4453
▁suas	-8.44665
ter	-8.44758
かもしれません	-8.45201
▁nem	-8.45395
tu	-8.45765
▁もし	-8.45798
▁facto	-8.4601
▁alguns	-8.46309
▁とても	-8.4651
ナ	-8.47023
▁crianças	-8.47176
コ	-8.47316
▁antes	-8.47422
sse	-8.47469
中	-8.47824
▁vi	-8.47833
▁今	-8.4785
水	-8.48296
▁primeiro	-8.48358
mento	-8.48541
子	-8.48664
▁nossas	-8.49137
ム	-8.49284
行	-8.49334
▁20	-8.49785
リー	-8.5009
▁S	-8.50135
las	-8.50224
いい	-8.50267
私は	-8.50295
▁corpo	-8.50464
レ	-8.505
▁vão	-8.50975
数	-8.51236
ではなく	-8.5155
▁自分の	-8.51807
▁talvez	-8.51819
▁faz	-8.5184
ámos	-8.51852
手	-8.51876
ズ	-8.51948
ではありません	-8.51956
▁Um	-8.52001
地	-8.52026
すると	-8.52061
▁また	-8.52066
▁tenho	-8.52147
▁alguém	-8.52306
だった	-8.5237
▁dar	-8.52409
シ	-8.52434
▁cerca	-8.5247
P	-8.52502
今	-8.52642
▁Isso	-8.52682
pe	-8.52939
化	-8.53395
M	-8.53525
▁enquanto	-8.53779
▁meus	-8.53874
▁estou	-8.54489
”	-8.54565
▁vou	-8.54576
▁vamos	-8.54768
▁19	-8.548
▁neste	-8.54955
dores	-8.55
▁tecnologia	-8.55038
▁それ	-8.55116
▁Agora	-8.55403
ことに	-8.55444
k	-8.55632
そう	-8.55828
idade	-8.56057
▁poder	-8.56667
x	-8.56702
bra	-8.56807
私の	-8.56891
のように	-8.56935
のような	-8.57017
方	-8.57208
後	-8.57543
ッ	-8.57652
▁Depois	-8.57774
los	-8.57803
ると	-8.57989
学	-8.58376
▁significa	-8.58453
▁momento	-8.58457
▁dados	-8.58482
▁彼らは	-8.58542
▁trabalhar	-8.58592
D	-8.587
け	-8.58753
へ	-8.58821
ver	-8.58989
れ	-8.59178
▁realmente	-8.59339
fe	-8.59605
vi	-8.60422
pi	-8.60523
▁foram	-8.60533
ば	-8.60956
▁acontece	-8.61161
研究	-8.61177
体	-8.61218
バ	-8.6139
cu	-8.61411
ado	-8.61759
問題	-8.61811
▁energia	-8.61892
られる	-8.62111
▁Foi	-8.62245
よりも	-8.62628
▁eram	-8.62641
▁例えば	-8.62655
▁disso	-8.62849
関係	-8.629
度	-8.6297
8	-8.63317
▁quem	-8.6351
lhes	-8.63551
▁何	-8.64159
▁mesma	-8.64175
z	-8.64471
▁Ele	-8.65184
できます	-8.65264
▁algumas	-8.65304
ei	-8.6531
▁私たちの	-8.65396
v	-8.6541
7	-8.65466
▁meio	-8.65534
なく	-8.65573
点	-8.65711
▁através	-8.65964
であり	-8.66038
▁Temos	-8.66096
何	-8.66184
グ	-8.6632
生	-8.66371
▁quanto	-8.66607
▁pro	-8.66689
I	-8.66842
▁novo	-8.67082
▁uns	-8.67303
なる	-8.67319
▁[	-8.67383
発	-8.67408
▁dias	-8.67813
▁começar	-8.6787
▁ex	-8.68281
本	-8.68342
良い	-8.68401
▁altura	-8.68694
▁elas	-8.68936
エ	-8.69083
世界	-8.69094
ó	-8.69119
▁EUA	-8.69122
▁encontrar	-8.69155
▁tinham	-8.69337
▁mil	-8.69353
なかった	-8.6941
▁diferente	-8.69416
ニ	-8.69571
▁世界	-8.69681
▁quase	-8.69751
▁conta	-8.69823
ada	-8.70276
▁sido	-8.70399
▁diz	-8.7053
ん	-8.70835
▁número	-8.70945
in	-8.70957
▁fim	-8.70996
ましょう	-8.71035
10	-8.71208
とき	-8.71308
B	-8.71311
ット	-8.71377
れば	-8.71402
▁そう	-8.71727
tra	-8.719
bo	-8.71947
▁一	-8.71958
▁他の	-8.7197
よう	-8.72013
たい	-8.72093
長	-8.72234
▁これらの	-8.72354
変化	-8.72563
っている	-8.72576
前に	-8.72864
▁だから	-8.7293
▁país	-8.72937
▁causa	-8.73038
▁dentro	-8.73194
でしょうか	-8.73244
家	-8.73285
▁ali	-8.73383
気	-8.73411
入	-8.73734
▁problemas	-8.73845
大きな	-8.73983
技術	-8.74166
っ	-8.74375
メ	-8.74404
ço	-8.7463
9	-8.7477
▁さらに	-8.75036
ir	-8.75043
▁pre	-8.75067
になります	-8.75139
an	-8.75362
▁mudar	-8.75438
ação	-8.75534
▁então	-8.75731
]	-8.75831
目	-8.75904
用	-8.76024
っています	-8.76047
▁quero	-8.76128
』	-8.76346
システム	-8.76386
の中で	-8.76484
▁espaço	-8.76582
月	-8.76815
▁essas	-8.7704
al	-8.7705
ba	-8.77243
ず	-8.7729
▁4	-8.77377
チ	-8.7763
▁futuro	-8.77699
▁pergunta	-8.7804
▁somos	-8.78168
▁多くの	-8.78197
場合	-8.78237
▁experiência	-8.78315
T	-8.78599
着	-8.78722
形	-8.78749
▁difícil	-8.78804
外	-8.78915
▁nesta	-8.7902
▁dinheiro	-8.7907
あ	-8.79088
▁saber	-8.79167
▁fazem	-8.79189
ダ	-8.7921
tar	-8.79226
▁modo	-8.79278
▁Ca	-8.79292
▁vos	-8.79327
ジ	-8.79513
▁私たちが	-8.79897
▁países	-8.80251
▁deles	-8.80525
▁ca	-8.80637
▁luz	-8.80672
▁qual	-8.80698
キ	-8.80798
音	-8.81041
意味	-8.81055
▁simples	-8.8109
▁desta	-8.81135
▁--	-8.81346
fi	-8.81386
万	-8.81479
所	-8.81584
▁sou	-8.81726
▁si	-8.81887
—	-8.81931
▁parece	-8.82459
▁possível	-8.82527
▁5	-8.82565
ça	-8.8258
▁このような	-8.82633
▁どう	-8.82745
オ	-8.828
ていました	-8.8281
じ	-8.83019
▁mostrar	-8.8312
▁♪	-8.83213
▁São	-8.83291
ビ	-8.83593
f	-8.83636
▁alguma	-8.83762
▁cor	-8.838
ながら	-8.84157
ウ	-8.84245
▁なぜ	-8.84261
による	-8.84287
作	-8.84715
しか	-8.84727
tas	-8.85
▁ただ	-8.85102
場所	-8.85285
▁Podemos	-8.85376
▁su	-8.85408
▁processo	-8.85653
面	-8.85737
頭	-8.85938
線	-8.86034
▁seria	-8.86101
言葉	-8.86144
po	-8.8618
▁vemos	-8.86196
▁células	-8.86238
こ	-8.86454
▁quatro	-8.86507
行動	-8.8653
▁bom	-8.86539
▁cidade	-8.86615
ディ	-8.86855
と思います	-8.86909
ティ	-8.86911
▁gente	-8.87084
せ	-8.87219
bu	-8.87395
▁per	-8.87426
を使って	-8.87508
合	-8.87514
プ	-8.8768
前	-8.87687
▁I	-8.87719
gu	-8.87754
▁もっと	-8.87872
▁estavam	-8.8788
▁local	-8.87941
ために	-8.88208
ツ	-8.88455
▁nova	-8.88698
▁acontecer	-8.88777
人間	-8.88873
ha	-8.89006
▁humanos	-8.89079
▁sei	-8.89202
▁お	-8.89407
を見	-8.89468
20	-8.89476
be	-8.89544
▁30	-8.89733
▁ajudar	-8.90065
▁fora	-8.90128
たり	-8.90426
心	-8.9044
▁Assim	-8.90534
▁saúde	-8.90593
▁B	-8.90622
のある	-8.90637
▁dólares	-8.91076
tos	-8.91226
部	-8.91286
語	-8.91286
ados	-8.91299
む	-8.91344
▁lugar	-8.91377
サ	-8.91487
▁こんな	-8.91546
▁co	-8.91624
年に	-8.91658
組織	-8.91792
nta	-8.91863
▁さて	-8.91867
があり	-8.91945
qui	-8.92092
▁Vou	-8.92182
していました	-8.92301
▁havia	-8.92457
▁100	-8.92492
理由	-8.9252
のでしょうか	-8.92572
ni	-8.92614
du	-8.92645
▁família	-8.9267
ボ	-8.92794
▁sabemos	-8.92838
法	-8.92981
▁これ	-8.93027
ru	-8.93031
私が	-8.93064
よく	-8.93156
▁それを	-8.93321
ssem	-8.93367
しない	-8.93399
足	-8.93445
金	-8.93601
モ	-8.93655
us	-8.93727
▁deste	-8.93822
通	-8.93828
▁resposta	-8.93851
道	-8.93882
▁questão	-8.9393
無	-8.93955
▁precisamos	-8.94037
▁Re	-8.9417
▁ここで	-8.94177
▁escola	-8.9442
バー	-8.94439
スト	-8.94678
多くの	-8.94889
▁同じ	-8.94891
▁ficar	-8.94904
生物	-8.95242
▁real	-8.95266
▁grupo	-8.95298
▁grandes	-8.95374
ち	-8.9543
▁tal	-8.95449
のでしょう	-8.95467
▁penso	-8.95551
へと	-8.95607
▁ponto	-8.95688
ガ	-8.95731
細胞	-8.95915
▁funciona	-8.95942
結果	-8.96029
にとって	-8.96076
▁palavras	-8.96101
ること	-8.96303
▁realidade	-8.96313
nt	-8.96318
▁di	-8.96426
▁desde	-8.96428
社会	-8.96558
イン	-8.9677
車	-8.96803
▁feito	-8.96888
不	-8.97022
▁Terra	-8.97065
▁longo	-8.9718
▁Com	-8.97225
答え	-8.97295
テ	-8.97499
▁mãe	-8.97541
▁esses	-8.97603
間	-8.97619
or	-8.97631
▁mulher	-8.97762
▁新しい	-8.97792
動物	-8.97967
▁homens	-8.9801
▁podia	-8.98106
データ	-8.98205
▁sub	-8.98247
▁T	-8.98278
作品	-8.9834
▁aquilo	-8.98432
ja	-8.98565
どう	-8.98812
できない	-8.98902
々	-8.99064
主	-8.99155
▁passado	-8.99292
させ	-8.9936
▁tornar	-8.99419
なんて	-8.99452
動	-8.99558
方法	-8.99582
させる	-8.99843
min	-8.99884
経験	-8.99887
▁olhar	-8.99959
io	-9.00097
R	-9.00216
色	-9.00287
rá	-9.00646
女性	-9.00686
高	-9.00722
年間	-9.00832
▁より	-9.00906
流	-9.00908
人に	-9.00919
られ	-9.01038
▁どんな	-9.01069
▁claro	-9.0114
▁tanto	-9.01275
場	-9.01281
存在	-9.01498
▁homem	-9.01537
▁chegar	-9.01633
ões	-9.01762
ネ	-9.01763
のために	-9.01908
情報	-9.01985
機能	-9.02006
iam	-9.02198
名	-9.02226
状態	-9.02236
ところ	-9.0231
▁cinco	-9.02338
fa	-9.02477
▁imagem	-9.02609
理解	-9.02629
活動	-9.02653
されました	-9.02699
▁vossa	-9.0278
環境	-9.02804
▁そんな	-9.02932
ですね	-9.02957
したり	-9.02981
になって	-9.03062
感	-9.03201
▁planeta	-9.03215
▁私たち	-9.03219
たのです	-9.03305
▁sala	-9.03378
されています	-9.03603
▁base	-9.03964
あります	-9.03999
▁我々は	-9.04019
▁ciência	-9.04028
たら	-9.04051
▁única	-9.04095
種	-9.04138
とか	-9.04161
▁maneira	-9.04177
状況	-9.04244
▁viver	-9.04323
に対する	-9.04376
ê	-9.04553
he	-9.04583
薬	-9.0469
▁なぜなら	-9.04907
▁partir	-9.05115
に対して	-9.05154
会社	-9.05175
だけでなく	-9.0543
en	-9.05897
発見	-9.05979
&	-9.06061
▁noite	-9.06095
▁razão	-9.06231
自分の	-9.06248
生活	-9.06318
▁perceber	-9.06393
▁大	-9.06574
▁非常に	-9.06667
していた	-9.06669
▁construir	-9.0672
▁まず	-9.06759
ではない	-9.06807
▁ajuda	-9.07171
▁sentido	-9.07313
▁segundo	-9.07387
素晴らしい	-9.07459
部分	-9.07589
'	-9.0761
有	-9.07644
▁TED	-9.07741
▁meses	-9.07795
▁Nós	-9.07801
▁“	-9.07808
▁nível	-9.07919
fo	-9.07958
ノ	-9.07963
▁Eles	-9.08025
例	-9.08053
物語	-9.08103
それ	-9.08118
▁espécie	-9.08132
Não	-9.08234
ありません	-9.08246
▁aprender	-9.08287
▁Obrigado	-9.08307
▁baixo	-9.08348
▁mal	-9.08374
▁torna	-9.08386
により	-9.08401
調査	-9.08415
L	-9.08428
▁mar	-9.08606
bi	-9.08677
新しい	-9.08736
▁P	-9.08805
他の	-9.08863
小さな	-9.08959
cha	-9.09101
ック	-9.09178
▁bastante	-9.09213
▁informação	-9.09291
▁caso	-9.09307
▁passar	-9.09346
木	-9.09488
▁では	-9.09495
残	-9.09533
▁comunidade	-9.09657
▁frente	-9.09777
になり	-9.10009
▁preciso	-9.10138
において	-9.1017
生き	-9.10243
変え	-9.10397
すること	-9.10415
▁Era	-9.10417
▁本当に	-9.10421
▁Con	-9.10557
▁それで	-9.10601
gi	-9.10648
を持つ	-9.10663
▁pequeno	-9.10687
▁sabem	-9.10761
▁mo	-9.10782
感じ	-9.10807
られた	-9.10843
mi	-9.10847
ソ	-9.10896
▁ma	-9.113
▁será	-9.11351
▁pequena	-9.11652
▁chamado	-9.11796
▁for	-9.11867
▁Ou	-9.11888
先	-9.11985
神	-9.12009
▁caminho	-9.12114
となる	-9.12143
▁histórias	-9.12144
未来	-9.1219
▁guerra	-9.12262
spe	-9.12266
▁maioria	-9.1236
時に	-9.12389
▁horas	-9.12535
gra	-9.12607
マン	-9.12738
▁もう	-9.12766
▁fazemos	-9.12997
ais	-9.13036
▁fez	-9.13155
口	-9.13291
ため	-9.13319
食	-9.13336
すれば	-9.13392
▁ありがとうございました	-9.13432
▁これを	-9.13444
話を	-9.13566
こう	-9.13574
写真	-9.13601
▁000	-9.13603
必要	-9.13698
st	-9.13742
ina	-9.13773
▁duma	-9.13947
セ	-9.14018
G	-9.14112
▁equipa	-9.14184
w	-9.14219
開発	-9.14272
▁fosse	-9.14276
▁F	-9.14348
▁boa	-9.14364
▁Vamos	-9.1437
▁最も	-9.14383
▁milhares	-9.14657
内	-9.14949
デ	-9.1495
ていた	-9.15119
nha	-9.15156
人々	-9.1531
▁animais	-9.1535
▁posso	-9.15419
ター	-9.15452
るのです	-9.15457
▁arte	-9.15534
▁estado	-9.15543
▁実際	-9.15549
もあります	-9.15586
▁Também	-9.15648
カー	-9.15877
脳	-9.16061
N	-9.16147
そうです	-9.16153
言う	-9.16169
ベ	-9.1621
になった	-9.16327
tor	-9.16457
▁filhos	-9.16572
▁sentir	-9.1663
企業	-9.16648
声	-9.16771
lar	-9.16859
私	-9.16878
ドル	-9.16914
▁chamada	-9.17105
per	-9.17126
▁pelos	-9.17134
▁queria	-9.17256
▁dele	-9.17317
▁pai	-9.17423
反応	-9.17426
▁força	-9.17448
30	-9.1751
重	-9.17526
▁15	-9.17549
▁vosso	-9.17775
立ち	-9.17792
文化	-9.17987
会	-9.17999
on	-9.17999
とも	-9.18281
▁ambiente	-9.18363
▁6	-9.18391
▁século	-9.18442
同じ	-9.18574
▁ba	-9.18634
▁procura	-9.18724
▁f	-9.18866
に関する	-9.1892
何か	-9.18921
sta	-9.18941
▁大きな	-9.18981
身	-9.18997
▁もちろん	-9.19093
ste	-9.19129
lt	-9.19162
ことで	-9.19256
ista	-9.19298
▁Ma	-9.19364
ゴ	-9.19387
▁c	-9.19429
宇宙	-9.19452
になりました	-9.195
▁fi	-9.19503
▁K	-9.19558
一つ	-9.1956
頃	-9.19693
機	-9.19733
治療	-9.19836
▁cabeça	-9.1987
rei	-9.20068
▁cancro	-9.20189
▁ninguém	-9.20429
▁enorme	-9.20462
▁capacidade	-9.20465
風	-9.20508
▁Aqui	-9.20526
知	-9.20559
lha	-9.20627
▁tra	-9.20729
▁po	-9.20842
思い	-9.20849
▁medida	-9.20854
における	-9.20913
実	-9.20987
▁Internet	-9.20987
▁acho	-9.21029
ものを	-9.21046
▁彼女は	-9.21064
実験	-9.21118
cor	-9.21146
▁現在	-9.21264
▁humano	-9.21285
▁アメリカ	-9.21315
されている	-9.21393
ú	-9.21397
▁queremos	-9.21406
なければ	-9.21453
成功	-9.21507
全体	-9.21593
gem	-9.21632
emos	-9.21691
▁―	-9.21741
▁interessante	-9.21794
パ	-9.2191
▁それから	-9.22112
年の	-9.2217
▁África	-9.22211
説明	-9.22245
質	-9.22301
ど	-9.22313
▁Todos	-9.22322
▁ideias	-9.22354
ten	-9.22386
▁aconteceu	-9.22388
▁こう	-9.22507
歳	-9.22601
取り	-9.22688
▁certo	-9.22693
je	-9.2295
▁Estamos	-9.23038
だろう	-9.23066
しましょう	-9.23104
▁Muito	-9.23113
▁『	-9.2325
▁50	-9.23277
運動	-9.23285
▁relação	-9.23445
▁実は	-9.2347
▁Bem	-9.23601
教え	-9.23653
ência	-9.23759
▁formas	-9.23812
とても	-9.23898
元	-9.23923
光	-9.24002
▁Mo	-9.24051
空	-9.24119
多	-9.24143
男	-9.24187
悪	-9.24521
▁ar	-9.2464
ur	-9.24645
cas	-9.24677
立	-9.24729
解	-9.24753
▁imagens	-9.24778
tr	-9.24805
したのです	-9.24809
すべき	-9.24816
50	-9.24905
ul	-9.25091
ck	-9.25102
▁Vi	-9.25116
多く	-9.25215
▁medo	-9.2522
▁passa	-9.25259
▁cima	-9.25291
▁novas	-9.2535
▁Ela	-9.25381
人たち	-9.25439
▁muita	-9.25572
gar	-9.25604
デザイン	-9.25687
pesar	-9.2573
▁provavelmente	-9.25875
というのは	-9.25878
熱	-9.26035
nd	-9.26117
▁livro	-9.26169
▁informações	-9.26225
▁social	-9.26388
▁governo	-9.26428
nto	-9.26625
▁pais	-9.26696
cer	-9.26706
ケ	-9.26783
ラン	-9.26786
▁という	-9.26897
付け	-9.27179
cre	-9.2726
ge	-9.27474
▁locais	-9.27498
são	-9.27636
▁amigos	-9.27647
あり	-9.27687
ハ	-9.27938
これ	-9.27991
質問	-9.28074
nas	-9.28076
もっと	-9.28152
tivo	-9.28209
bri	-9.28234
たちは	-9.28423
▁fui	-9.28506
引き	-9.28552
▁público	-9.28624
音楽	-9.28682
▁fa	-9.28736
億	-9.28736
▁existe	-9.28745
▁termos	-9.28782
地球	-9.28951
▁mudança	-9.28973
出す	-9.29066
影響	-9.29077
V	-9.29083
dia	-9.29195
を見て	-9.29256
中に	-9.29269
ita	-9.29304
▁fácil	-9.29324
▁seguinte	-9.29515
役	-9.29636
にいる	-9.29777
▁ここ	-9.29884
▁Podem	-9.29914
んで	-9.29936
ente	-9.29945
it	-9.3
▁música	-9.30117
しく	-9.30173
▁彼の	-9.30184
夢	-9.30184
最も	-9.30234
H	-9.3042
達	-9.3048
力を	-9.30668
成長	-9.30672
の中に	-9.3072
▁inter	-9.30795
通り	-9.3085
▁li	-9.31
チーム	-9.31023
都市	-9.31092
人を	-9.31188
能力	-9.31219
▁素晴らしい	-9.31227
正	-9.3135
▁Penso	-9.31365
プロジェクト	-9.31375
▁trata	-9.31432
構造	-9.31453
gue	-9.31519
▁totalmente	-9.31581
来	-9.31602
モデル	-9.31633
たち	-9.31654
ませんでした	-9.31783
ります	-9.32086
アイデア	-9.32341
▁morte	-9.32359
ven	-9.32419
▁Já	-9.32483
pro	-9.32548
▁dela	-9.32625
されます	-9.32676
グループ	-9.32717
ポ	-9.32776
▁olhos	-9.32783
▁ouvir	-9.33183
私たちは	-9.33261
▁Ao	-9.33278
▁conjunto	-9.33353
を作る	-9.33371
▁aquela	-9.3342
▁contar	-9.33514
▁lhe	-9.33612
ável	-9.3363
▁18	-9.33673
il	-9.33698
始め	-9.33706
ール	-9.33746
▁ア	-9.33793
戦	-9.33823
▁programa	-9.33863
▁G	-9.33895
▁papel	-9.33903
pre	-9.33928
▁ですから	-9.3398
仕事	-9.34002
lho	-9.3403
▁sociedade	-9.34068
▁leva	-9.3412
ホ	-9.34163
▁área	-9.34164
▁projeto	-9.34256
病	-9.3432
▁começa	-9.344
▁destas	-9.34473
▁D	-9.3453
地域	-9.34534
ゲーム	-9.34552
なんです	-9.34576
経済	-9.34696
▁何か	-9.34718
星	-9.34816
▁global	-9.34819
tiva	-9.3483
com	-9.34865
量	-9.34897
指	-9.34932
▁nome	-9.34969
▁descobrir	-9.35074
▁quer	-9.35118
本当に	-9.35164
▁empresas	-9.35175
ぎ	-9.3522
▁deixar	-9.35225
命	-9.35334
cio	-9.35352
▁Te	-9.35384
▁levar	-9.35389
▁palavra	-9.35481
がありました	-9.35484
価値	-9.35499
言いました	-9.35538
▁certa	-9.35599
▁melhores	-9.35603
▁final	-9.35605
▁様々な	-9.35633
F	-9.35745
▁últimos	-9.3577
定	-9.35907
▁まだ	-9.35925
rmos	-9.36038
ビデオ	-9.36132
▁atenção	-9.36134
▁見	-9.36161
代	-9.3625
教育	-9.36342
家族	-9.36366
らない	-9.36405
▁voltar	-9.36436
ito	-9.36564
良く	-9.36723
▁実際に	-9.36749
皆さん	-9.36777
倍	-9.36938
ということ	-9.37001
cos	-9.37008
するのは	-9.3716
違う	-9.37263
明	-9.37278
ng	-9.37343
といった	-9.37442
jo	-9.37483
海	-9.37662
para	-9.37671
▁amor	-9.37781
▁seres	-9.37817
▁conseguimos	-9.37848
違い	-9.3791
選択	-9.37932
▁centro	-9.37933
わけです	-9.38004
難しい	-9.38034
上の	-9.38046
▁Pa	-9.38124
▁universo	-9.38125
同	-9.38127
機会	-9.38137
ろ	-9.3837
可能	-9.38376
▁quantidade	-9.38413
だけで	-9.38467
ヒ	-9.38475
▁fiz	-9.38485
▁comida	-9.38621
ロー	-9.38646
器	-9.38674
を持って	-9.38744
▁criança	-9.38857
▁especial	-9.38901
ぐ	-9.39052
街	-9.39184
▁みんな	-9.39311
論	-9.39313
友人	-9.39374
▁Di	-9.3944
▁doença	-9.39443
th	-9.39621
▁8	-9.39631
ご	-9.39748
▁我々の	-9.39867
系	-9.39932
てきました	-9.39991
cr	-9.39992
人生	-9.40026
▁人間	-9.40115
エネルギー	-9.40231
ismo	-9.40244
▁sabe	-9.40283
▁Pe	-9.40366
▁dizem	-9.40374
▁mão	-9.40387
▁pi	-9.40487
▁W	-9.4056
▁fazê	-9.40578
nda	-9.40712
▁7	-9.40738
きました	-9.40904
直	-9.40999
▁quais	-9.41048
空間	-9.4107
られます	-9.41073
重要な	-9.41098
失	-9.41169
なり	-9.41368
ヤ	-9.41384
▁humana	-9.41432
を与え	-9.41471
患者	-9.41563
小	-9.41621
▁aquele	-9.41636
一人	-9.41704
▁movimento	-9.41735
紙	-9.41884
受け	-9.41985
での	-9.42004
▁fundo	-9.42098
効果	-9.42264
後に	-9.42332
するのです	-9.42426
▁minutos	-9.42609
しい	-9.42635
▁comecei	-9.42646
アン	-9.42668
▁Nova	-9.42687
れる	-9.42702
ジェ	-9.42719
▁Ba	-9.42776
ber	-9.42786
死	-9.42802
反	-9.42818
愛	-9.42823
tá	-9.4285
cho	-9.4294
をする	-9.42986
リン	-9.43029
▁conseguir	-9.43123
再	-9.43134
ピ	-9.43189
▁além	-9.43241
▁mostra	-9.43248
▁empresa	-9.4326
▁auto	-9.43273
▁algum	-9.433
▁特に	-9.43407
べき	-9.43427
▁rede	-9.43455
ch	-9.4347
▁delas	-9.43549
▁destes	-9.4361
▁começou	-9.43876
cia	-9.4405
電話	-9.4409
すべて	-9.44109
▁あらゆる	-9.44116
▁único	-9.44148
man	-9.44186
▁水	-9.44224
皆	-9.44323
▁M	-9.44368
▁estudo	-9.44393
傷	-9.44452
▁população	-9.44454
示	-9.44528
魚	-9.44556
げ	-9.44675
少し	-9.44699
可能性	-9.44736
▁sim	-9.44761
▁Talvez	-9.44761
ーン	-9.44816
血	-9.44858
▁computador	-9.4491
▁seis	-9.44974
ザ	-9.44984
par	-9.44992
▁aí	-9.45006
▁tarde	-9.45176
千	-9.45195
物質	-9.45236
▁In	-9.45249
▁Pode	-9.45265
▁última	-9.45274
層	-9.45274
▁vir	-9.45286
科学	-9.45321
▁CA	-9.45342
書き	-9.4539
▁início	-9.4549
▁宇宙	-9.45544
▁私達は	-9.45555
山	-9.45678
放	-9.45742
▁en	-9.45771
現実	-9.45805
表現	-9.45897
▁manter	-9.45916
▁seguir	-9.45945
▁よく	-9.46029
▁tipos	-9.46063
▁Só	-9.46148
un	-9.46183
州	-9.46214
%	-9.46219
▁tamanho	-9.46413
izar	-9.46481
▁Estas	-9.46495
▁diferença	-9.46697
ida	-9.46771
▁脳	-9.46799
返	-9.46817
▁suficiente	-9.46849
▁carro	-9.46854
▁querem	-9.46916
▁Sa	-9.46918
を変え	-9.47021
ll	-9.47032
持ち	-9.47139
表	-9.47143
図	-9.47225
いない	-9.47336
体験	-9.4746
もう	-9.47483
▁deve	-9.475
そ	-9.47505
▁chama	-9.47525
助け	-9.47575
▁彼らの	-9.47581
したい	-9.47625
するために	-9.47648
▁desenvolvimento	-9.47776
ようと	-9.47821
▁Deus	-9.47839
▁política	-9.47977
▁modelo	-9.47978
▁rapidamente	-9.47987
▁Estes	-9.48031
また	-9.48043
初めて	-9.48159
▁comportamento	-9.48204
▁série	-9.48305
▁cientistas	-9.4833
▁alta	-9.4837
機械	-9.48405
▁estrutura	-9.48505
かった	-9.48507
記憶	-9.48517
書	-9.48624
約	-9.48651
人類	-9.48657
ラー	-9.48727
ze	-9.48739
istas	-9.48788
次	-9.48823
画像	-9.48849
▁segurança	-9.48946
支援	-9.49051
てください	-9.49059
上げ	-9.4908
▁escala	-9.491
さえ	-9.49129
100	-9.49204
tura	-9.49216
作り	-9.49221
▁それに	-9.4924
くらい	-9.49248
惑星	-9.49258
感覚	-9.4931
なのか	-9.49432
íamos	-9.49473
市場	-9.49517
mas	-9.49522
側	-9.49544
夜	-9.4956
計画	-9.4959
car	-9.49637
▁vídeo	-9.4971
上で	-9.49788
▁Do	-9.49885
con	-9.49905
目的	-9.49934
▁地球	-9.50002
動き	-9.50008
▁China	-9.50025
者の	-9.50098
▁sabia	-9.50121
分の	-9.5017
▁serem	-9.50258
はありません	-9.50297
▁Co	-9.50306
▁imp	-9.50391
▁obrigado	-9.50643
▁sociais	-9.50667
▁40	-9.50693
at	-9.50711
以上	-9.50725
▁terra	-9.50782
▁entrar	-9.50796
したら	-9.50833
大学	-9.50846
知識	-9.50887
遺伝子	-9.50935
rão	-9.50952
ギ	-9.51101
▁resolver	-9.51147
ペ	-9.51181
▁J	-9.51205
▁Me	-9.51216
▁Sim	-9.51222
観	-9.513
ことができます	-9.51316
▁Da	-9.51475
▁cultura	-9.51627
▁impacto	-9.51649
守	-9.51677
てきた	-9.51717
ことも	-9.51721
これは	-9.51755
品	-9.51767
できた	-9.51779
ばかり	-9.5179
事を	-9.51797
▁te	-9.5184
19	-9.51863
員	-9.51905
考える	-9.51912
ないのです	-9.51933
▁Obrigada	-9.51979
ずっと	-9.52006
電	-9.52039
▁trans	-9.52186
さん	-9.5219
建物	-9.52224
ido	-9.52425
▁situação	-9.52434
nho	-9.52559
ひ	-9.52628
▁tive	-9.52674
U	-9.52704
ing	-9.52846
名前	-9.52931
興味	-9.52971
分子	-9.52979
▁super	-9.52996
と言う	-9.5304
しません	-9.5308
▁tínhamos	-9.53086
▁Tem	-9.53094
ros	-9.53148
コン	-9.53155
近	-9.532
▁precisa	-9.53282
tal	-9.53325
▁小さな	-9.5335
▁visão	-9.53451
よね	-9.5349
瞬間	-9.5354
なので	-9.53634
lá	-9.53687
起こ	-9.53707
▁12	-9.53857
▁economia	-9.53868
ica	-9.53897
だからです	-9.53942
ライ	-9.54017
ante	-9.54177
情報を	-9.54263
▁mercado	-9.54291
▁dá	-9.543
▁objetivo	-9.54317
見て	-9.54349
きます	-9.54369
産	-9.5441
▁linha	-9.54422
疑問	-9.54432
面白い	-9.54454
▁sair	-9.54496
▁La	-9.54504
りました	-9.54559
子供たち	-9.54562
▁continuar	-9.54596
始めました	-9.54663
全	-9.54674
ぶ	-9.54714
じゃない	-9.54737
▁oportunidade	-9.5475
精神	-9.54772
部屋	-9.548
強	-9.54887
病気	-9.54954
まれ	-9.54962
台	-9.54993
▁doenças	-9.55034
絵	-9.55105
成	-9.55121
ける	-9.55122
解決	-9.55169
トン	-9.55312
人と	-9.55344
tivos	-9.5537
▁escrever	-9.55394
▁N	-9.55571
che	-9.55578
▁L	-9.55589
人口	-9.55659
▁conversa	-9.55679
▁今日	-9.5578
▁imaginar	-9.55859
▁ADN	-9.55908
議論	-9.5591
▁自然	-9.55984
信じ	-9.5609
いません	-9.56126
真	-9.56211
パー	-9.56217
学生	-9.56237
▁risco	-9.56257
▁segunda	-9.56366
▁cidades	-9.56387
▁espera	-9.56438
▁あの	-9.5645
進化	-9.56509
▁jovens	-9.56597
▁esperança	-9.56602
▁ここに	-9.56619
ho	-9.56655
利用	-9.56675
課題	-9.56713
▁どの	-9.56813
するか	-9.56847
だけです	-9.57026
使用	-9.57189
▁controlo	-9.57293
リスク	-9.57308
▁Está	-9.57392
▁importantes	-9.57403
かけ	-9.57404
父	-9.57483
▁minhas	-9.57492
vis	-9.57495
▁Quero	-9.57548
出し	-9.57629
▁少し	-9.57637
プログラム	-9.57641
▁som	-9.57686
▁centenas	-9.57756
火	-9.57856
ização	-9.57955
根	-9.57984
船	-9.58035
記録	-9.58065
▁conhecimento	-9.58113
市民	-9.58132
ップ	-9.58233
▁semana	-9.58284
るか	-9.58306
言語	-9.58331
リア	-9.58341
かもしれない	-9.58341
もので	-9.58351
▁sistemas	-9.58372
える	-9.58417
型	-9.5842
全ての	-9.58441
認識	-9.58458
保護	-9.58458
▁dessas	-9.58495
と同じ	-9.58545
▁conseguem	-9.58574
▁nisso	-9.58576
集団	-9.58695
減	-9.58735
rra	-9.58805
ニー	-9.58811
▁maiores	-9.58812
▁9	-9.58817
▁その後	-9.58884
マー	-9.58901
曲	-9.58907
▁comum	-9.58916
われ	-9.59006
▁fica	-9.59009
▁不	-9.59043
アメリカ	-9.59054
室	-9.59055
tre	-9.59168
対	-9.5917
▁私	-9.59185
▁あなたの	-9.59231
▁disto	-9.59237
だと思います	-9.59256
▁sob	-9.59284
中で	-9.59419
el	-9.5945
移動	-9.59455
tou	-9.59503
▁fizemos	-9.59534
暴力	-9.59558
一番	-9.59627
▁atrás	-9.5964
▁dis	-9.59664
▁nenhum	-9.59709
重要	-9.59712
▁皆さん	-9.59765
▁考え	-9.59772
忘れ	-9.59782
だって	-9.59897
▁全ての	-9.59925
▁experiências	-9.60028
つけ	-9.60133
悪い	-9.60195
当	-9.60207
伝え	-9.6026
高い	-9.6028
健康	-9.6032
何を	-9.60371
障害	-9.60382
▁cara	-9.60426
世	-9.60448
逆	-9.60475
送	-9.60558
大きく	-9.6069
生まれ	-9.60704
変	-9.60732
理	-9.60769
▁Al	-9.60781
▁Que	-9.61011
からの	-9.61145
害	-9.61186
映画	-9.61205
▁perto	-9.61306
▁investigação	-9.61317
非常に	-9.61347
顔	-9.61439
▁embora	-9.61439
作業	-9.61484
▁pensei	-9.6156
式	-9.6162
▁compreender	-9.61672
▁exatamente	-9.61687
áveis	-9.61789
売	-9.61833
▁chega	-9.61974
▁semanas	-9.6201
目に	-9.6201
以上の	-9.62026
レー	-9.62032
▁superfície	-9.62045
▁こうした	-9.62141
試	-9.62266
ますが	-9.62269
たくさん	-9.62279
石	-9.62383
▁novos	-9.62447
▁car	-9.62498
▁sexo	-9.62626
▁deixa	-9.6263
▁aqueles	-9.62656
dura	-9.6269
tes	-9.62715
び	-9.62748
▁jogo	-9.62761
波	-9.62771
▁Hoje	-9.62786
母	-9.62862
▁valor	-9.629
行き	-9.62919
危険	-9.63024
▁resultado	-9.63074
増	-9.63092
mor	-9.63108
全て	-9.63111
渡	-9.63118
るのは	-9.63131
▁disseram	-9.63162
白	-9.63186
▁im	-9.63229
旅	-9.63249
▁crescimento	-9.63276
考え方	-9.63317
骨	-9.63511
男性	-9.63564
▁pequenos	-9.63696
▁社会	-9.63708
の一部	-9.63758
▁filho	-9.63777
▁Po	-9.63804
はずです	-9.63813
hi	-9.63835
中の	-9.63867
▁demasiado	-9.63888
どんな	-9.63925
もなく	-9.63963
半	-9.63966
▁Tenho	-9.63976
が必要です	-9.6399
▁par	-9.64031
朝	-9.64136
落ち	-9.64145
時代	-9.64171
レン	-9.64225
使う	-9.64227
よい	-9.64229
▁別の	-9.64231
を受け	-9.64266
軍	-9.64351
▁continua	-9.64401
ário	-9.64402
強い	-9.6463
複雑な	-9.6468
xi	-9.6468
切	-9.64681
amos	-9.64887
装置	-9.64887
けど	-9.6492
▁laboratório	-9.6501
要素	-9.65015
ものは	-9.65082
▁Estou	-9.65097
▁Essa	-9.65154
▁Vocês	-9.65165
それを	-9.65356
▁pôr	-9.65387
▁pesquisa	-9.65424
の中	-9.65433
▁voz	-9.6546
的で	-9.65507
年代	-9.65602
5%	-9.65622
ロボット	-9.65628
責任	-9.65639
でき	-9.65703
▁Acho	-9.65739
▁natureza	-9.65765
参加	-9.65825
▁次の	-9.65898
せる	-9.65915
▁nessa	-9.6602
▁pensamos	-9.66056
tei	-9.66078
za	-9.66092
▁人間の	-9.66093
病院	-9.66149
▁60	-9.66254
Eu	-9.66319
▁fala	-9.66334
いくつか	-9.66402
仕事を	-9.66457
▁vista	-9.66462
平	-9.66488
実現	-9.66491
via	-9.66517
歌	-9.66526
▁comigo	-9.66528
を持ち	-9.66576
▁過去	-9.66628
ているのです	-9.66773
▁longe	-9.66783
▁nesse	-9.66791
▁visto	-9.668
gt	-9.6682
核	-9.66903
端	-9.67005
シャ	-9.67026
程	-9.67114
自	-9.67172
▁Ga	-9.6718
▁man	-9.67234
▁vê	-9.6741
▁最初の	-9.67588
社	-9.67644
▁obter	-9.6768
思う	-9.67699
ju	-9.6774
管理	-9.67747
があった	-9.6778
がない	-9.67781
るべき	-9.67793
の世界	-9.67818
ras	-9.67838
込み	-9.67853
コミュニティ	-9.679
▁ler	-9.67905
▁precisam	-9.67938
率	-9.67947
しようと	-9.67998
▁nenhuma	-9.68119
恐怖	-9.68195
▁自分	-9.68202
▁理解	-9.68209
adas	-9.6821
▁haver	-9.68224
nal	-9.68228
壁	-9.68251
好き	-9.68255
としても	-9.68268
▁perguntas	-9.68312
設計	-9.68326
位	-9.6834
▁máquina	-9.68391
▁mãos	-9.68481
▁中国	-9.68494
の間	-9.68498
▁sol	-9.68528
信頼	-9.68586
▁ensino	-9.68715
言って	-9.68717
▁can	-9.68788
/	-9.6882
▁norte	-9.68851
▁áreas	-9.68867
のない	-9.68879
キャ	-9.6897
sco	-9.69008
たちが	-9.69026
つき	-9.69065
▁我々が	-9.69073
▁自分が	-9.69126
することで	-9.69147
規模	-9.6923
▁so	-9.69245
神経	-9.69264
ガン	-9.69308
▁próprio	-9.69317
▁acesso	-9.69367
▁U	-9.69439
極	-9.69472
私たちの	-9.69489
▁incrível	-9.69498
と思う	-9.69518
▁tratamento	-9.6966
理論	-9.69725
ネットワーク	-9.69764
メートル	-9.69892
▁ちょっと	-9.69894
正しい	-9.69905
方が	-9.69912
投資	-9.69953
▁médicos	-9.69965
▁marca	-9.69966
やって	-9.70023
▁pequenas	-9.70057
▁andar	-9.70079
しても	-9.70088
ものでした	-9.70089
▁dessa	-9.70112
同様	-9.70206
新	-9.70302
▁resto	-9.70362
感情	-9.70368
im	-9.70368
来た	-9.70374
▁campo	-9.70385
▁Ro	-9.70442
ion	-9.70501
ral	-9.70539
K	-9.70547
▁completamente	-9.70584
連	-9.70585
生産	-9.70606
行く	-9.70622
ide	-9.70718
tem	-9.70772
密	-9.70788
断	-9.70795
▁consegue	-9.70821
ヘ	-9.70855
▁teve	-9.70861
手を	-9.70865
tin	-9.70933
人も	-9.70942
予測	-9.70952
▁simplesmente	-9.70996
ですか	-9.71073
▁interior	-9.71085
▁sejam	-9.71178
親	-9.71208
人々が	-9.7123
界	-9.71257
▁natural	-9.71279
▁あるいは	-9.71299
意識	-9.71305
nde	-9.71335
方法を	-9.71339
son	-9.71373
生徒	-9.71388
▁resultados	-9.71399
あった	-9.71512
gen	-9.71554
実際に	-9.7156
▁foto	-9.7159
▁手	-9.71685
ie	-9.7175
▁Bo	-9.71759
▁あなた	-9.71852
Se	-9.71871
um	-9.71874
君	-9.71887
▁própria	-9.7201
ふ	-9.72021
派	-9.72021
et	-9.72043
理由は	-9.72286
言い	-9.7232
数字	-9.72328
▁tornou	-9.7233
ger	-9.72333
▁tomar	-9.72352
などの	-9.725
配	-9.72505
ほとんど	-9.72507
原	-9.72529
▁tenha	-9.72547
っていました	-9.72605
されて	-9.72628
▁mesmos	-9.72671
協力	-9.72718
▁partilhar	-9.72756
▁世界の	-9.72826
▁espécies	-9.72829
世代	-9.72842
別の	-9.72928
▁efeito	-9.72986
出来	-9.72993
職	-9.73033
ávamos	-9.73159
ソン	-9.7319
ワ	-9.73259
友達	-9.7326
▁metros	-9.73357
ad	-9.73363
▁Claro	-9.73376
自然	-9.73412
期	-9.73473
速	-9.73483
▁無	-9.73491
ns	-9.73506
源	-9.73641
ものが	-9.73643
医療	-9.73647
▁época	-9.7365
視	-9.73734
ても	-9.73757
美しい	-9.73792
しているのです	-9.73802
▁女性	-9.73803
だから	-9.73838
自由	-9.73936
▁perguntar	-9.74004
▁teoria	-9.7406
機関	-9.74063
▁エ	-9.74115
なければなりません	-9.7413
▁livros	-9.7413
安全	-9.74134
til	-9.74137
▁Enquanto	-9.74197
▁sucesso	-9.74197
評価	-9.74238
決め	-9.743
▁oceano	-9.74358
時間を	-9.74373
『	-9.74384
なります	-9.7441
▁certeza	-9.74472
飛び	-9.74474
▁ro	-9.74476
▁veem	-9.7449
を取り	-9.74504
気持ち	-9.74581
ゲ	-9.74582
かどうか	-9.74656
▁À	-9.74672
▁Estão	-9.7475
ando	-9.74946
ったり	-9.74967
失敗	-9.75026
楽	-9.75117
ível	-9.75133
破	-9.75161
僕	-9.75176
言	-9.75231
鳥	-9.75303
fer	-9.75411
▁Índia	-9.75442
者が	-9.75509
サー	-9.75554
働き	-9.75563
味	-9.75574
40	-9.75746
inha	-9.75782
▁grupos	-9.75839
北	-9.7584
負	-9.75848
est	-9.75865
oso	-9.7587
▁これまで	-9.75961
週間	-9.75965
▁hora	-9.75975
▁colocar	-9.76134
現在	-9.76144
Até	-9.76148
press	-9.7616
▁彼らが	-9.76206
興味深い	-9.7627
▁fizeram	-9.76302
素	-9.76304
スター	-9.76327
のですが	-9.76363
▁filme	-9.76372
▁porta	-9.76372
幸せ	-9.76392
ようになりました	-9.76456
cra	-9.76562
▁caixa	-9.76563
経	-9.76571
ざ	-9.76584
▁Ok	-9.76626
アル	-9.7667
▁existem	-9.76704
ações	-9.76729
務	-9.76744
▁Li	-9.76836
パターン	-9.76843
娘	-9.76843
国の	-9.7693
ッド	-9.76934
▁falta	-9.76972
希望	-9.76985
▁doentes	-9.7699
アー	-9.77058
▁次に	-9.77143
深く	-9.77161
合い	-9.77223
▁memória	-9.77268
▁metade	-9.77299
手術	-9.773
分かる	-9.77313
▁palestra	-9.77409
▁solução	-9.77552
ríamos	-9.77564
por	-9.77617
メディア	-9.77622
類	-9.77686
▁portanto	-9.77704
▁ずっと	-9.77705
ーム	-9.7771
にして	-9.77744
eiro	-9.77771
者は	-9.77776
土	-9.77815
▁tri	-9.77858
▁morrer	-9.77915
200	-9.77917
▁彼	-9.78016
▁usando	-9.78037
▁Mais	-9.78062
▁corre	-9.78079
映像	-9.78123
集	-9.7815
提供	-9.78164
してきました	-9.7817
を見つけ	-9.78176
話し	-9.78229
裏	-9.78265
領域	-9.78265
▁彼ら	-9.78275
学習	-9.78286
要	-9.78333
▁Pro	-9.78362
▁V	-9.78456
▁senti	-9.78458
こんな	-9.7851
tina	-9.78553
期待	-9.78555
ビー	-9.78573
できません	-9.78641
▁plano	-9.78708
▁devia	-9.78709
▁recursos	-9.78722
こそ	-9.78724
込んで	-9.78815
すぐ	-9.78816
▁exp	-9.78836
自身	-9.7888
オー	-9.78895
▁uso	-9.78907
問題を	-9.78912
キロ	-9.78948
箱	-9.78983
目標	-9.78991
科学者	-9.79056
▁Tudo	-9.79078
▁pior	-9.79097
▁cria	-9.79105
▁física	-9.79128
▁最後に	-9.79156
▁Nos	-9.79163
ton	-9.79171
笑い	-9.79205
design	-9.79273
国家	-9.79313
▁crescer	-9.7934
▁devem	-9.79407
▁ありがとう	-9.79481
▁coração	-9.79612
目の	-9.79625
かれ	-9.79743
様々な	-9.79754
▁vem	-9.79848
▁研究	-9.79972
15	-9.79988
文字	-9.79991
▁câmara	-9.79998
▁tu	-9.80016
dora	-9.80018
▁pensam	-9.80049
天	-9.80201
近く	-9.80218
▁Per	-9.80225
▁qu	-9.80244
▁representa	-9.80247
▁várias	-9.8029
▁inteiro	-9.8029
それは	-9.80322
て下さい	-9.80347
▁massa	-9.80352
▁forte	-9.8036
▁何が	-9.80372
としたら	-9.8039
▁mundial	-9.80436
人々に	-9.80446
▁Le	-9.80449
付	-9.80459
▁最近	-9.80487
建築	-9.80512
テクノロジー	-9.80523
fra	-9.80549
歳の	-9.80586
▁desenvolver	-9.80602
▁aumentar	-9.80628
▁números	-9.80644
ていて	-9.80701
の話	-9.80712
女	-9.80745
向け	-9.80787
remos	-9.80876
感染	-9.80892
シー	-9.80905
始まり	-9.80913
▁devemos	-9.81022
使い	-9.81038
める	-9.81074
っていた	-9.81096
強く	-9.81096
▁そこに	-9.81111
▁idade	-9.81147
ã	-9.81153
イメージ	-9.8117
▁livre	-9.8117
サン	-9.81181
創	-9.81188
posto	-9.81256
想像	-9.81267
▁aumenta	-9.81271
▁linguagem	-9.81317
▁manhã	-9.81317
▁quarto	-9.81317
の問題	-9.81386
▁indústria	-9.81465
改善	-9.81466
結婚	-9.81466
▁carbono	-9.81613
!"	-9.81624
真実	-9.81638
世紀	-9.81678
行為	-9.81754
▁estudantes	-9.81789
物を	-9.81817
▁Google	-9.81908
進歩	-9.81914
私たちが	-9.81914
手段	-9.81917
関心	-9.81937
生命	-9.81973
▁Ju	-9.8198
最大の	-9.81995
これを	-9.81996
ルー	-9.82018
業	-9.82041
▁中	-9.82126
▁partilha	-9.82146
もない	-9.82156
プロ	-9.82174
▁normal	-9.82187
▁数	-9.82349
細	-9.82351
▁América	-9.82356
カメラ	-9.82356
▁すると	-9.82451
▁teria	-9.82461
ート	-9.82485
gre	-9.8249
▁Imaginem	-9.82505
mar	-9.8257
▁acabar	-9.82628
主義	-9.82701
を通して	-9.82709
ていく	-9.82739
▁após	-9.82768
秒	-9.82804
tico	-9.82815
事実	-9.82835
rica	-9.82845
つか	-9.82854
やり方	-9.82863
難	-9.82907
どこ	-9.82909
▁200	-9.82928
恐れ	-9.83006
▁世界中の	-9.83034
▁podiam	-9.83049
かな	-9.83078
資金	-9.8311
年前	-9.83111
息子	-9.83114
進	-9.83126
▁presente	-9.8314
手に	-9.83175
私に	-9.83214
▁próxima	-9.83255
▁人生	-9.83316
0	-9.83421
終わり	-9.83543
世界を	-9.83662
▁それでも	-9.83686
等	-9.83691
積	-9.83695
王	-9.83702
▁lei	-9.83737
▁これら	-9.83761
を作り	-9.83803
▁Iorque	-9.83859
立て	-9.8386
▁彼女	-9.83929
ュ	-9.83938
知っている	-9.83947
▁bi	-9.83969
戦争	-9.8398
der	-9.84002
▁Europa	-9.8401
危機	-9.84013
来る	-9.84047
ig	-9.84087
救	-9.84093
接	-9.84149
川	-9.84162
▁velocidade	-9.84162
▁Ha	-9.84188
bor	-9.84207
適	-9.84284
▁科学	-9.84289
▁R	-9.84295
▁partes	-9.84322
▁geração	-9.84359
なった	-9.84378
nça	-9.84384
▁viagem	-9.84498
▁Precisamos	-9.84505
▁via	-9.84522
▁あなたは	-9.84574
注意	-9.84615
ist	-9.8462
mon	-9.84624
▁sete	-9.84633
▁fu	-9.84647
開	-9.84714
▁média	-9.84771
▁consegui	-9.8486
▁Jo	-9.849
村	-9.84922
言った	-9.8493
▁amigo	-9.84966
▁いつも	-9.85043
▁mau	-9.85064
▁violência	-9.85077
ment	-9.85099
べ	-9.85108
ac	-9.85111
▁estudar	-9.85144
enta	-9.85181
先生	-9.85184
▁Mi	-9.85207
bre	-9.85271
▁al	-9.85312
▁人	-9.85342
▁Durante	-9.85384
▁direito	-9.85432
まだ	-9.85476
ご覧	-9.85539
処理	-9.8554
▁皆	-9.85564
W	-9.85593
▁11	-9.85609
関連	-9.85694
ジャ	-9.85805
▁alto	-9.85816
▁comer	-9.85823
▁Primeiro	-9.85846
戻	-9.85936
があって	-9.86013
▁aprendi	-9.8608
ないと	-9.86141
ウイルス	-9.86156
▁彼が	-9.86208
▁'	-9.8621
望	-9.86221
文	-9.86328
話す	-9.86346
ための	-9.8637
▁80	-9.86378
私たち	-9.86379
ヶ月	-9.86395
彼は	-9.86454
tores	-9.86492
▁カ	-9.86635
服	-9.86706
となり	-9.86756
bilidade	-9.86765
▁vivem	-9.86818
可能な	-9.8684
▁médico	-9.86848
のことです	-9.86866
▁entanto	-9.86934
▁muda	-9.86981
チャ	-9.86996
▁procurar	-9.86999
▁baixa	-9.87062
ダー	-9.87069
▁extra	-9.87077
▁ameaça	-9.8709
なぜ	-9.87105
破壊	-9.8712
テスト	-9.87121
女性が	-9.87168
▁melhorar	-9.87235
ビル	-9.87247
学校	-9.87327
id	-9.87425
芸術	-9.87493
▁tivesse	-9.87505
起	-9.87519
聞き	-9.87559
▁luta	-9.87598
ke	-9.87627
の研究	-9.87635
世界中	-9.877
向	-9.8773
大量	-9.87742
が必要	-9.87745
不安	-9.87751
見え	-9.87785
ですよね	-9.87814
転	-9.87827
消	-9.87834
対象	-9.87877
合わせ	-9.87899
▁carros	-9.8791
agem	-9.87972
▁direitos	-9.87983
意見	-9.87993
最	-9.88008
片	-9.88025
メール	-9.8806
▁海	-9.88123
でしたが	-9.88147
化学	-9.88166
攻撃	-9.88191
込む	-9.88193
▁sal	-9.88206
過ぎ	-9.88306
育	-9.88329
▁pu	-9.88461
は何	-9.88471
▁consciência	-9.88507
▁mu	-9.88526
▁possam	-9.88567
帰	-9.88633
▁contrário	-9.88666
▁entra	-9.88699
▁qualidade	-9.88723
ものに	-9.88773
có	-9.88783
見る	-9.8879
交	-9.88833
▁bo	-9.88894
格	-9.88933
▁そういう	-9.88951
得	-9.88962
分野	-9.89071
▁poderia	-9.89077
好	-9.89088
ファ	-9.89116
▁あまり	-9.89118
▁vírus	-9.89141
▁digital	-9.89143
▁Des	-9.8915
▁全く	-9.89176
▁mapa	-9.89235
▁tenham	-9.8926
▁necessário	-9.89303
誰	-9.89379
▁pessoal	-9.89404
準備	-9.89463
るように	-9.89492
調べ	-9.89514
事が	-9.89555
▁aspeto	-9.89577
posta	-9.89615
▁material	-9.89623
会話	-9.89674
今日	-9.89808
かけて	-9.89899
普通	-9.89901
▁edifício	-9.89902
▁ouvi	-9.89929
底	-9.89965
▁terem	-9.89976
十	-9.90021
▁comunidades	-9.90051
este	-9.90083
末	-9.90106
政府	-9.90174
続け	-9.90206
▁Mu	-9.90217
▁passo	-9.9025
と共に	-9.90272
▁ほとんど	-9.90276
▁começaram	-9.90279
ira	-9.90318
おり	-9.90424
▁esquerda	-9.90429
利益	-9.9043
▁pedir	-9.90448
▁produzir	-9.90451
発明	-9.90458
ニュース	-9.90467
深い	-9.90498
ent	-9.905
人々の	-9.90503
によると	-9.90513
▁家族	-9.90517
▁produto	-9.90558
若者	-9.90563
▁estávamos	-9.90593
ことになります	-9.90596
▁マ	-9.906
創造	-9.90633
割	-9.90703
zo	-9.90728
▁boas	-9.90737
▁Y	-9.90749
▁新たな	-9.90751
植物	-9.90775
医学	-9.90796
▁国	-9.90834
られました	-9.90872
▁favor	-9.91062
▁nisto	-9.91079
▁まさに	-9.9108
パン	-9.91087
ndi	-9.91215
▁último	-9.91217
繰り返し	-9.9124
▁matemática	-9.9124
判断	-9.91242
▁Ho	-9.9127
▁comprar	-9.91284
▁Lo	-9.91299
▁pé	-9.91304
▁Esse	-9.9131
▁良い	-9.91327
ol	-9.91337
▁高	-9.91365
大変	-9.91374
ときに	-9.91403
▁H	-9.91423
自分	-9.9156
ぼ	-9.91564
▁juntos	-9.91589
▁afeta	-9.91666
学者	-9.91671
▁usam	-9.91739
はとても	-9.91788
ワー	-9.91821
南	-9.91826
かかる	-9.91828
ことでしょう	-9.91837
抜け	-9.9187
他	-9.91881
▁fotografia	-9.91882
▁pensa	-9.91934
▁25	-9.91947
満	-9.91965
見た	-9.91969
▁desses	-9.91975
▁funcionar	-9.92007
の場合	-9.92052
店	-9.92059
▁capazes	-9.92107
▁perder	-9.92112
についての	-9.92198
サービス	-9.92223
lin	-9.92234
まま	-9.92256
▁alunos	-9.92256
▁interessa	-9.92289
だったのです	-9.92302
世界の	-9.92391
▁Neste	-9.92404
▁possa	-9.92447
▁coloca	-9.92519
症	-9.9253
▁observar	-9.9255
のための	-9.92659
▁atividade	-9.92676
▁redes	-9.92704
てしまう	-9.92715
みんな	-9.92834
eu	-9.92858
▁alimentar	-9.92879
計算	-9.92885
気が	-9.92947
訳	-9.92967
▁sequer	-9.93003
▁distância	-9.9305
銀河	-9.9305
▁educação	-9.9305
▁língua	-9.93052
▁escolher	-9.93071
仲間	-9.93072
かもしれませんが	-9.93091
tam	-9.93153
氷	-9.93215
▁período	-9.93216
発展	-9.93217
種類の	-9.93256
代わりに	-9.93265
▁一番	-9.93334
▁depressa	-9.93384
▁rua	-9.93418
体の	-9.9344
▁permite	-9.93456
iva	-9.93502
角	-9.93546
▁心	-9.93586
ssi	-9.93612
▁Mar	-9.93714
▁これから	-9.93763
iro	-9.93884
▁pele	-9.93894
るために	-9.9392
▁usa	-9.93957
アフリカ	-9.93987
まる	-9.93995
テレビ	-9.9405
ヒト	-9.94104
pas	-9.94106
虫	-9.94218
▁interesse	-9.94218
▁あなたが	-9.94247
▁verde	-9.94272
▁ho	-9.94318
▁feliz	-9.9433
何が	-9.94341
▁pontos	-9.94347
組	-9.94368
に行く	-9.94371
注目	-9.94371
▁Sou	-9.94373
▁Qual	-9.94376
tic	-9.94428
止め	-9.94437
の間に	-9.94465
円	-9.94555
を使い	-9.94561
かを	-9.94562
データを	-9.94563
座	-9.94573
ことでした	-9.94592
▁observa	-9.94654
online	-9.94728
▁Ra	-9.94751
▁desse	-9.94762
▁tirar	-9.9477
▁僕は	-9.94773
▁17	-9.9479
▁total	-9.94824
結	-9.94845
▁transforma	-9.94895
聞く	-9.94904
▁explicar	-9.94906
▁これで	-9.94941
東	-9.94966
▁correr	-9.94981
▁tecnologias	-9.95005
敵	-9.95061
▁bons	-9.9507
つく	-9.95076
リーダー	-9.95084
のことを	-9.95097
分析	-9.95109
▁pobres	-9.95113
したこと	-9.95114
種の	-9.95159
出来事	-9.95205
を使う	-9.95222
▁visual	-9.95231
ct	-9.95235
▁notícias	-9.95283
▁当時	-9.95329
ることで	-9.95362
時間が	-9.95466
▁animal	-9.95483
殺	-9.95488
60	-9.95501
わかります	-9.95562
フィ	-9.95647
きた	-9.95669
事に	-9.95692
cto	-9.95712
急	-9.95731
▁本	-9.95734
▁questões	-9.95741
概念	-9.95742
▁naquela	-9.95743
dão	-9.95765
ください	-9.95794
タン	-9.95814
cial	-9.95832
容	-9.95891
▁seguro	-9.95913
官	-9.9592
知らない	-9.95931
らせ	-9.96034
前の	-9.96065
のも	-9.96067
ld	-9.9608
▁podíamos	-9.96083
▁Ti	-9.96087
個	-9.96099
仕	-9.96139
をして	-9.96163
▁depende	-9.96191
▁14	-9.96194
存在する	-9.96219
世界に	-9.96237
▁trás	-9.96254
驚くべき	-9.96257
▁desejo	-9.96258
人々を	-9.96291
▁extremamente	-9.96449
の数	-9.96508
▁現実	-9.96614
受け入れ	-9.96625
やり	-9.96626
ここ	-9.96683
横	-9.96763
▁liberdade	-9.96769
意	-9.96782
することです	-9.96784
利	-9.96786
ナー	-9.96833
12	-9.96869
国民	-9.96889
持つ	-9.96906
▁razões	-9.96942
女の子	-9.96942
▁conhecido	-9.96945
▁computadores	-9.97036
平均	-9.97057
media	-9.97064
wa	-9.97207
あなた	-9.9721
▁このように	-9.97222
バイ	-9.97267
まり	-9.9733
▁houve	-9.9734
屋	-9.97398
英語	-9.97465
権利	-9.97465
▁saí	-9.97519
考えて	-9.97564
独	-9.97619
▁ensinar	-9.97745
値	-9.97749
aram	-9.97778
▁acaba	-9.97796
大統領	-9.97808
主張	-9.97815
たく	-9.97825
人々は	-9.9784
▁professores	-9.97851
製品	-9.97906
気に	-9.97924
▁vidas	-9.97924
▁especialmente	-9.97939
▁アフリカ	-9.97953
効率	-9.97991
人達	-9.98008
ようです	-9.98017
合う	-9.98059
分かります	-9.98065
▁かなり	-9.98086
ていない	-9.98124
美	-9.98134
枚	-9.98157
に関して	-9.98159
土地	-9.98182
500	-9.98209
▁すべて	-9.98257
▁escrito	-9.98332
▁primeiros	-9.98354
▁raparigas	-9.98424
のこと	-9.98478
なかったのです	-9.98499
cta	-9.98609
▁約	-9.98616
▁miúdos	-9.98622
▁casos	-9.98643
周り	-9.98647
限り	-9.9865
別	-9.9866
▁perspetiva	-9.98682
▁potencial	-9.98682
▁Parece	-9.98683
問	-9.98695
▁lidar	-9.98697
走	-9.98743
異	-9.98783
記事	-9.98834
▁relações	-9.98859
信号	-9.9886
内容	-9.98869
▁まるで	-9.9888
地図	-9.98892
方法で	-9.98949
tado	-9.98952
▁誰も	-9.99021
▁materiais	-9.99034
▁pena	-9.99053
になると	-9.99091
心配	-9.99091
▁車	-9.99107
赤	-9.99119
ありました	-9.99171
モン	-9.99172
▁ia	-9.99195
固	-9.99202
▁母	-9.99274
落	-9.99288
レベル	-9.99338
▁インターネット	-9.99358
▁ganhar	-9.99368
▁evolução	-9.99387
▁prática	-9.99387
▁sangue	-9.99387
暮らし	-9.99392
世界で	-9.99417
最初の	-9.99421
▁ferramentas	-9.99511
ことがあります	-9.99533
rim	-9.99541
苦	-9.99549
妻	-9.99564
▁democracia	-9.99564
することは	-9.99592
tório	-9.99636
▁Fa	-9.99734
リスト	-9.99783
してきた	-9.99807
異なる	-9.99816
▁我々	-9.99848
好きな	-9.99861
É	-9.9989
Como	-9.9989
医者	-9.99901
犬	-9.99919
インド	-9.99967
▁junta	-9.99968
アリ	-10.0005
▁polícia	-10.001
特徴	-10.001
▁Vemos	-10.001
▁confiança	-10.001
iza	-10.0018
住	-10.0022
▁decisões	-10.0028
選択肢	-10.0028
持って	-10.0034
▁どうやって	-10.0035
痛み	-10.0037
▁70	-10.0039
うまく	-10.0045
▁código	-10.0045
ご存知	-10.0045
▁fundamental	-10.0049
定義	-10.0052
続ける	-10.0054
行った	-10.0055
間に	-10.0055
▁Z	-10.0056
方は	-10.0058
ることができます	-10.0058
入り	-10.0059
つは	-10.0061
許	-10.0063
退	-10.0063
乳	-10.0063
訓練	-10.0063
現象	-10.0063
出来る	-10.0066
にあります	-10.0073
iz	-10.0074
▁aumento	-10.0082
▁errado	-10.0083
子供達	-10.0084
ところで	-10.0085
米	-10.0085
相	-10.0087
eira	-10.0087
!」	-10.0093
▁célula	-10.0094
▁mensagem	-10.0099
▁faço	-10.0103
コー	-10.0103
それら	-10.0104
聞いて	-10.0104
相手	-10.0105
隠	-10.011
様子	-10.0117
▁acerca	-10.0117
▁おそらく	-10.012
多い	-10.012
gens	-10.012
▁digo	-10.0126
▁colegas	-10.0127
お話し	-10.0128
家庭	-10.0137
ava	-10.0148
▁sítio	-10.0149
▁escolha	-10.0149
idos	-10.0151
ただ	-10.0151
izado	-10.0154
あらゆる	-10.0159
cida	-10.0159
プロセス	-10.0171
▁Ainda	-10.0171
xe	-10.0173
事は	-10.0175
食べ物	-10.0184
▁finalmente	-10.0185
▁medicina	-10.0189
フェ	-10.019
▁vossos	-10.0191
の方が	-10.0191
制度	-10.0192
▁plantas	-10.0196
子ども	-10.0199
様	-10.0202
だろうか	-10.0202
▁こういった	-10.0206
感じる	-10.0207
思考	-10.0208
予想	-10.0208
資源	-10.0208
反対	-10.0208
そうな	-10.0209
▁常に	-10.0218
entes	-10.0221
昔	-10.0221
▁percebi	-10.0224
増加	-10.0226
教	-10.0229
実際	-10.0232
▁fazia	-10.0236
問題は	-10.0237
▁Tinha	-10.024
▁direita	-10.0244
▁Bu	-10.0245
stru	-10.0253
DNA	-10.0255
帯	-10.026
▁naquele	-10.0262
赤ちゃん	-10.0262
位置	-10.0263
をつけ	-10.0267
週	-10.0273
ありませんでした	-10.0283
乗	-10.0294
革命	-10.0299
青	-10.0308
タイ	-10.0309
のだと	-10.0309
のため	-10.031
限	-10.0315
作った	-10.0316
▁conceito	-10.0318
切り	-10.032
▁16	-10.0322
コンピュータ	-10.0328
riam	-10.0335
J	-10.0335
▁jovem	-10.0336
証拠	-10.0336
ixo	-10.0337
ncia	-10.0342
れた	-10.0343
▁初めて	-10.0353
▁acredito	-10.0354
▁rápido	-10.0354
場所に	-10.0359
向き	-10.036
▁responder	-10.0361
専門家	-10.0361
▁彼女の	-10.0367
dio	-10.0369
▁azul	-10.0373
知る	-10.0373
▁誰もが	-10.0379
▁lista	-10.0382
▁目	-10.0399
いろいろ	-10.0409
法律	-10.041
公開	-10.0411
▁filha	-10.0413
▁X	-10.0414
のではなく	-10.0423
件	-10.0423
を変える	-10.0424
ry	-10.0425
あげ	-10.0427
答えは	-10.0432
▁cal	-10.0439
▁tivemos	-10.0439
起き	-10.0441
るでしょう	-10.0441
いつも	-10.0446
ストレス	-10.0447
路	-10.0448
子供	-10.045
▁incluindo	-10.045
xa	-10.045
▁solar	-10.0451
▁oito	-10.0453
des	-10.0458
▁Quanto	-10.0462
▁思い	-10.0463
制御	-10.0465
年前に	-10.0465
▁sério	-10.0467
▁acordo	-10.0467
原因	-10.0476
▁Ve	-10.0479
したのは	-10.048
空気	-10.0483
▁climática	-10.0484
▁ficou	-10.0485
tt	-10.0486
問題に	-10.0495
▁encontra	-10.05
▁iria	-10.0501
分け	-10.0502
腕	-10.0503
▁vive	-10.0508
▁気	-10.0509
iu	-10.0513
qu	-10.0515
▁preocupa	-10.0516
状	-10.0516
レイ	-10.0516
黒人	-10.0518
▁gostaria	-10.0518
教師	-10.0522
であれば	-10.0523
あと	-10.053
いか	-10.0532
cal	-10.0532
ran	-10.0533
▁humanidade	-10.054
必要があります	-10.054
決定	-10.0541
わかる	-10.0548
置	-10.0548
cção	-10.0549
▁conseguia	-10.055
書いて	-10.0555
調	-10.0556
権	-10.0563
始める	-10.0564
二	-10.0567
ましたが	-10.0569
三	-10.0574
説	-10.0575
載	-10.0578
上に	-10.0581
電子	-10.0581
中国	-10.0584
▁Quem	-10.0584
▁一方	-10.0585
▁データ	-10.0585
全員	-10.0585
▁regras	-10.0586
▁famílias	-10.0587
圧	-10.0594
られない	-10.0596
▁padrões	-10.0596
診断	-10.0597
飛行機	-10.0597
てくれる	-10.0598
▁próximo	-10.0599
列	-10.0615
▁hospital	-10.0615
捨て	-10.0616
▁topo	-10.0616
ツール	-10.0618
▁Estava	-10.0619
cl	-10.0621
▁かつて	-10.0624
シュ	-10.0631
歴史	-10.0633
どのように	-10.0634
▁mudou	-10.0635
▁capaz	-10.0649
▁árvores	-10.065
卵	-10.0653
▁sexual	-10.0653
氏	-10.0653
であると	-10.0664
流れ	-10.0665
全部	-10.0669
▁vários	-10.0672
細菌	-10.0673
▁仕事	-10.0674
と呼ばれる	-10.0677
することが	-10.0678
観察	-10.0679
運	-10.068
はこの	-10.0687
▁levou	-10.0691
▁sorte	-10.0691
▁devido	-10.0693
▁Nunca	-10.0696
▁parecer	-10.0697
に入れ	-10.0703
ないでしょう	-10.0707
違います	-10.0708
▁receber	-10.0708
勝	-10.0709
検査	-10.0711
▁taxa	-10.0711
ついて	-10.0711
分かって	-10.0712
▁próprios	-10.0718
してください	-10.0722
と思いました	-10.0725
lia	-10.0725
▁Be	-10.0728
ひどい	-10.073
▁sensação	-10.073
ハン	-10.0735
行われ	-10.0739
つ目は	-10.0747
統計	-10.0749
▁インド	-10.0753
像	-10.0755
De	-10.0757
▁estudos	-10.076
▁antiga	-10.0761
撮影	-10.0764
▁povo	-10.0764
選	-10.0766
すこと	-10.0766
何も	-10.0767
▁micro	-10.0768
やすい	-10.0768
リング	-10.0769
ban	-10.0772
▁To	-10.0774
カル	-10.0776
万人	-10.0779
▁chamamos	-10.0782
いく	-10.0783
▁fantástico	-10.0787
お見せ	-10.0788
していて	-10.0789
ves	-10.079
▁Chama	-10.0792
▁Alguns	-10.0794
歩	-10.0796
▁decidi	-10.0805
ですよ	-10.0805
sin	-10.0807
▁En	-10.0808
アイ	-10.0808
▁いつ	-10.0812
▁しかも	-10.0813
▁máquinas	-10.0816
bro	-10.0816
ple	-10.0817
▁Ka	-10.0822
複雑	-10.0824
nce	-10.0825
花	-10.0826
▁artigo	-10.0826
・・・	-10.0826
▁たとえば	-10.0827
ex	-10.0827
▁entender	-10.0828
なくて	-10.0833
段階	-10.0841
ロン	-10.0841
▁geral	-10.0843
当たり	-10.0849
▁preço	-10.0851
▁teste	-10.0856
もありません	-10.0858
▁都市	-10.0865
▁salvar	-10.0866
▁custo	-10.0866
試み	-10.0873
島	-10.0884
▁Acontece	-10.0884
nia	-10.0886
99	-10.0886
bil	-10.0889
▁desafio	-10.089
過程	-10.0891
▁同時に	-10.0896
▁どのように	-10.0897
▁verdadeira	-10.0899
▁たった	-10.0901
除	-10.0901
と一緒に	-10.0902
▁aprendizagem	-10.0903
▁longa	-10.0903
けれど	-10.0903
追い	-10.0904
があると	-10.0907
▁教育	-10.0908
▁ligação	-10.091
▁principal	-10.0916
原子	-10.0916
引	-10.092
▁peso	-10.0924
ード	-10.0926
がん	-10.0926
なくても	-10.0928
居	-10.0931
事です	-10.0932
身体	-10.0935
人間の	-10.0942
拡大	-10.0943
エル	-10.0948
いるのです	-10.0951
差	-10.0951
言え	-10.0958
不可能	-10.0962
に出	-10.0964
cido	-10.0968
▁sono	-10.0972
の一	-10.0972
▁juntar	-10.0976
冷	-10.0981
▁começámos	-10.0982
去	-10.0982
たのは	-10.0989
と言いました	-10.0996
▁何も	-10.1001
同僚	-10.1001
▁gelo	-10.1002
過ごし	-10.1003
深	-10.1004
のうち	-10.1006
▁cuidados	-10.1007
▁importa	-10.1013
ことができる	-10.1017
▁オ	-10.1017
▁condições	-10.1021
▁90	-10.1021
▁gosto	-10.1021
▁2000	-10.1023
為に	-10.1025
それが	-10.1029
いで	-10.1034
詩	-10.1036
bio	-10.1037
▁Su	-10.1037
あたり	-10.1046
00	-10.1051
▁環境	-10.1053
自己	-10.1056
▁objetos	-10.1056
▁ficam	-10.1064
▁毎日	-10.1072
bal	-10.1079
▁pública	-10.108
▁Têm	-10.108
▁direção	-10.108
ッチ	-10.108
一度	-10.1081
▁produtos	-10.1084
up	-10.1084
▁米国	-10.1088
すら	-10.1091
造	-10.1099
▁produção	-10.11
▁buraco	-10.11
▁repente	-10.11
困難	-10.1103
sh	-10.1106
ris	-10.1108
gas	-10.1112
▁profunda	-10.1113
あまり	-10.1119
▁crise	-10.112
▁私達の	-10.113
直接	-10.113
▁たくさんの	-10.1132
野	-10.1135
▁ご	-10.1135
押し	-10.1135
隣	-10.1139
首	-10.1139
▁pagar	-10.1144
日に	-10.1146
はず	-10.1147
現	-10.115
icamente	-10.1158
夫	-10.1159
潜	-10.116
▁assunto	-10.116
穴	-10.116
▁esca	-10.1162
▁sinal	-10.1162
たちの	-10.1162
rec	-10.1165
lan	-10.1166
▁ス	-10.1168
▁envia	-10.117
▁So	-10.1171
▁bebé	-10.1172
▁peça	-10.1172
▁pedaço	-10.118
▁velho	-10.118
証明	-10.118
言える	-10.1187
については	-10.1191
見える	-10.1192
情	-10.1193
なもの	-10.1201
お金	-10.1201
▁情報	-10.1202
見方	-10.1206
プラ	-10.1208
▁carta	-10.121
そんな	-10.1213
ックス	-10.1217
▁私も	-10.1219
eta	-10.1219
迫	-10.122
遊び	-10.122
を作って	-10.122
出て	-10.123
vel	-10.1231
▁descobrimos	-10.1235
毛	-10.124
支配	-10.124
ろうと	-10.1242
としての	-10.1244
しながら	-10.1246
問い	-10.1249
▁particular	-10.1253
始めた	-10.1256
確認	-10.126
▁chamar	-10.126
彼の	-10.1262
材	-10.1262
▁verdadeiro	-10.1263
▁一緒に	-10.1265
子どもたち	-10.1268
▁pegar	-10.1271
保	-10.1276
▁petróleo	-10.128
ぞ	-10.1282
上手く	-10.1283
▁fiquei	-10.1284
amp	-10.1285
▁そこ	-10.1286
▁Go	-10.1287
ivo	-10.1287
呼び	-10.1291
▁transformar	-10.1292
いませんでした	-10.1292
だけの	-10.1292
▁autor	-10.1294
できるのです	-10.1295
進め	-10.1299
研究者	-10.1299
軽	-10.1301
ったのです	-10.1308
産業	-10.131
大きい	-10.1321
cam	-10.1321
▁tratar	-10.1321
ática	-10.1322
▁líderes	-10.1324
TED	-10.1331
▁bactérias	-10.1335
▁13	-10.1336
粒子	-10.1341
▁padrão	-10.1341
▁escolas	-10.1342
微生物	-10.1344
自分たち	-10.1345
生まれた	-10.1348
▁何を	-10.1348
間の	-10.1352
ブラ	-10.1359
▁relaciona	-10.1359
ガー	-10.1359
政策	-10.1362
▁実	-10.1363
政治	-10.1364
これが	-10.1365
できるように	-10.1365
彼らは	-10.1365
弱	-10.1371
▁それぞれの	-10.1374
▁prazo	-10.1382
解決策	-10.1383
まとめ	-10.1385
cou	-10.1386
▁arma	-10.139
背	-10.1396
▁pensamento	-10.1399
▁人々は	-10.14
欠	-10.1402
銀行	-10.1403
パーセント	-10.1403
ine	-10.1403
▁今では	-10.1406
ずに	-10.1408
方向	-10.1408
無い	-10.1408
▁irá	-10.1411
▁proteger	-10.1419
草	-10.1423
▁pat	-10.1426
lidade	-10.1427
▁medi	-10.1428
人物	-10.1428
わけではありません	-10.1429
▁sinto	-10.1429
▁コ	-10.1432
消え	-10.1434
我々の	-10.1438
優	-10.1438
▁光	-10.1442
▁construção	-10.1443
▁contexto	-10.1443
運転	-10.1444
▁genes	-10.1449
再生	-10.1449
▁céu	-10.1449
ニア	-10.146
▁pobreza	-10.1464
▁すべての	-10.1465
▁toma	-10.1474
ここで	-10.1476
ですから	-10.1478
▁人々が	-10.1478
ベル	-10.148
頼	-10.148
低	-10.148
絶	-10.1483
払	-10.1488
fica	-10.1491
▁経済	-10.1491
▁Será	-10.1496
使	-10.1497
▁acreditar	-10.1498
▁você	-10.1501
▁consigo	-10.1505
食料	-10.1506
ならば	-10.1518
女性は	-10.1522
良	-10.1522
80	-10.1523
どの	-10.1523
含	-10.1525
選挙	-10.1526
▁Mesmo	-10.1526
共同	-10.1527
▁reduzir	-10.1528
▁estrelas	-10.1533
になっています	-10.1536
毎	-10.1536
サイ	-10.154
▁negócio	-10.1543
族	-10.1543
ハイ	-10.1548
彼ら	-10.1549
ならない	-10.1559
The	-10.1559
11	-10.1561
▁esforço	-10.1568
▁apoio	-10.1568
額	-10.1569
gio	-10.1575
18	-10.1576
▁テクノロジー	-10.1576
目を	-10.1576
聴	-10.1578
団体	-10.1579
お話	-10.1586
投票	-10.1588
amento	-10.159
温	-10.1594
▁conhecer	-10.1597
▁anti	-10.16
▁子供	-10.16
ân	-10.1601
となります	-10.1601
を感じ	-10.1602
在	-10.1604
すぎ	-10.1605
得る	-10.1605
eiros	-10.1609
癌	-10.1609
▁etc	-10.161
▁falha	-10.1612
長い	-10.1613
過去	-10.1614
▁usamos	-10.1615
ino	-10.1626
▁Sul	-10.1627
▁feita	-10.1628
▁tendência	-10.163
▁Pensem	-10.163
条件	-10.163
pul	-10.1632
▁mesa	-10.1632
rar	-10.1634
▁invent	-10.1638
▁全	-10.1639
性を	-10.1639
だけではなく	-10.1642
料	-10.1643
▁meta	-10.1643
紹介	-10.1644
▁prepara	-10.1644
▁km	-10.1645
▁criado	-10.165
最高	-10.165
▁económico	-10.1651
命を	-10.1656
写真を	-10.166
共有	-10.1667
▁robôs	-10.1671
込まれ	-10.1672
▁inglês	-10.1672
▁二	-10.1672
▁mudanças	-10.1673
が出	-10.168
▁ligar	-10.1683
ところです	-10.1685
と思った	-10.1688
▁passou	-10.169
タンパク質	-10.1693
施設	-10.1693
動か	-10.1703
▁こういう	-10.1706
põe	-10.1709
するのに	-10.171
彼	-10.1712
▁efeitos	-10.1714
▁新	-10.1716
権力	-10.1718
テロ	-10.1726
与え	-10.173
打ち	-10.173
▁医療	-10.1734
▁estranho	-10.1734
最高の	-10.1735
なって	-10.1735
距離	-10.1735
小さい	-10.1735
つ目の	-10.1736
inho	-10.1743
専門	-10.1748
歯	-10.1757
市	-10.1762
▁全て	-10.1764
cula	-10.1771
得られ	-10.1773
士	-10.1776
方を	-10.1776
取	-10.1777
▁emprego	-10.1778
▁abrir	-10.1778
を見る	-10.178
ador	-10.1781
遠く	-10.1782
▁anda	-10.1791
コスト	-10.1791
▁vivo	-10.1791
▁lugares	-10.1798
方法は	-10.1798
過	-10.1799
▁sozinho	-10.1799
銃	-10.1799
使われ	-10.18
乗り	-10.1802
▁considera	-10.1804
45	-10.1805
▁compra	-10.1809
言葉を	-10.181
していない	-10.1815
Porque	-10.1815
アルゴリズム	-10.182
▁子ども	-10.1826
▁生命	-10.1827
▁将来	-10.183
付き	-10.1835
探	-10.1836
装	-10.1841
離れ	-10.1841
▁impossível	-10.1842
▁floresta	-10.1842
上昇	-10.1842
▁robô	-10.1843
回復	-10.1844
▁pois	-10.1852
本を	-10.1853
▁私には	-10.1855
ジョン	-10.1855
精	-10.1857
彼女	-10.1859
入れ	-10.186
▁ほぼ	-10.1861
捉え	-10.1862
▁コンピュータ	-10.1864
▁Ja	-10.1864
▁tua	-10.1864
▁Sabemos	-10.1867
人生を	-10.1871
▁外	-10.1875
画	-10.1877
▁想像	-10.1877
報	-10.1882
▁teu	-10.1887
▁logo	-10.1888
時期	-10.1894
▁エネルギー	-10.1898
費	-10.1904
▁aldeia	-10.1906
ジュ	-10.1908
ほどの	-10.1915
▁これらは	-10.1917
会場	-10.192
▁utiliza	-10.1921
ビジネス	-10.1927
▁permitir	-10.1928
▁sinais	-10.1928
刺激	-10.1928
道具	-10.1929
中心	-10.1932
▁doente	-10.1934
▁pude	-10.1938
しよう	-10.1939
られています	-10.194
クス	-10.1941
バス	-10.1941
▁controla	-10.1945
公	-10.1947
形で	-10.1956
を得る	-10.1964
程度	-10.1966
筋	-10.1971
ô	-10.1971
～	-10.1971
知って	-10.1971
言われ	-10.1973
トラ	-10.1981
▁Ora	-10.1983
性の	-10.1987
決して	-10.1987
局	-10.1992
仕組み	-10.1993
ários	-10.1993
非	-10.1994
こともあります	-10.1998
であること	-10.1998
ることは	-10.1998
qua	-10.1999
肉	-10.2004
消費	-10.2011
クリ	-10.2011
ジー	-10.2013
▁pensava	-10.2014
▁identidade	-10.2014
▁matéria	-10.2014
▁ecrã	-10.2014
アート	-10.2016
多様性	-10.2017
れない	-10.2023
撃	-10.2031
行動を	-10.2036
▁demonstra	-10.2036
つながり	-10.2036
出した	-10.2037
▁frase	-10.2038
犯罪	-10.2039
母親	-10.2042
▁前	-10.2045
▁nacional	-10.2056
▁Facebook	-10.2056
▁difíceis	-10.2058
▁progresso	-10.2058
▁ritmo	-10.2058
dica	-10.206
ており	-10.2061
安	-10.2065
▁normalmente	-10.2069
学び	-10.2071
かせ	-10.2073
▁varia	-10.2077
思	-10.2078
対応	-10.2083
してくれる	-10.2083
際	-10.2085
大切	-10.2089
増え	-10.2089
ética	-10.2089
▁indivíduos	-10.2092
nder	-10.2093
▁ouvido	-10.2094
あって	-10.2094
gan	-10.2096
▁dizia	-10.2096
▁produz	-10.21
ウィ	-10.2101
嘘	-10.2102
取り組み	-10.2103
▁possibilidade	-10.2106
広	-10.211
▁dum	-10.2117
▁私に	-10.2118
しているのは	-10.2118
▁drogas	-10.2121
散	-10.2121
▁私達が	-10.2121
▁rio	-10.2123
▁esperar	-10.2124
セックス	-10.2125
▁どうして	-10.2128
▁brincar	-10.2138
間違い	-10.2143
使える	-10.2143
菌	-10.2145
余	-10.2146
▁exterior	-10.2146
燃料	-10.2146
難民	-10.2149
出して	-10.215
事件	-10.2151
追	-10.2162
想	-10.2163
そして	-10.2167
寝	-10.2168
▁vermelho	-10.2168
ブル	-10.217
▁comunicação	-10.2171
をしました	-10.2174
ic	-10.2178
このような	-10.2178
抱	-10.2179
ed	-10.2183
▁政治	-10.2183
喜び	-10.219
優れた	-10.2191
▁pensem	-10.22
達は	-10.22
少	-10.2201
ud	-10.2201
いった	-10.2202
どこか	-10.2204
ジョ	-10.221
ヨ	-10.2212
脱	-10.2212
▁pesca	-10.2212
▁col	-10.2215
▁Ta	-10.2218
たとき	-10.2222
▁verão	-10.2225
なんだ	-10.2227
語り	-10.2231
▁exemplos	-10.2233
までに	-10.2233
症状	-10.2234
姿	-10.2235
を行う	-10.224
▁ensina	-10.2243
▁guarda	-10.2246
トリ	-10.2248
ゼ	-10.2252
▁Ne	-10.2254
Música	-10.2257
組み合わせ	-10.2264
▁500	-10.2268
▁現在の	-10.2271
記	-10.2274
▁poderá	-10.2277
知り	-10.2279
わずか	-10.2281
ico	-10.2289
mit	-10.2289
さらに	-10.2291
▁空	-10.2292
▁まったく	-10.2292
▁serviços	-10.2294
場所で	-10.23
▁milhão	-10.2301
ページ	-10.2301
ッシュ	-10.2307
▁aquelas	-10.2308
▁そのような	-10.2314
▁sul	-10.2318
▁男性	-10.232
▁carreira	-10.2324
もう一つ	-10.2327
▁indica	-10.2328
ut	-10.2329
▁lutar	-10.2331
for	-10.2333
全く	-10.2334
▁事実	-10.2338
▁家	-10.2342
▁政府	-10.2342
▁poderosa	-10.2344
▁inteligência	-10.2346
▁bairro	-10.2346
見られる	-10.2348
はじめ	-10.235
っと	-10.2358
▁pedi	-10.2359
なん	-10.236
▁significado	-10.2361
fu	-10.2361
▁viram	-10.2366
▁espírito	-10.2369
授業	-10.2369
mer	-10.2373
初期	-10.2376
知っています	-10.2377
の多くは	-10.238
ここに	-10.2381
ens	-10.2383
▁親	-10.2384
▁professor	-10.2384
▁explorar	-10.2387
はい	-10.239
弾	-10.2391
▁pré	-10.2391
飛行	-10.2392
さを	-10.2393
▁serão	-10.2393
自分を	-10.2394
早く	-10.2394
ランド	-10.2396
起こり	-10.2401
何かを	-10.2402
でもあります	-10.2404
ec	-10.2404
▁mesmas	-10.2404
発生	-10.2405
▁tiveram	-10.2407
▁método	-10.2414
▁uni	-10.2417
成果	-10.242
▁edifícios	-10.242
なくなる	-10.2422
従	-10.2423
ていません	-10.2425
属	-10.2435
▁parecia	-10.2437
▁abaixo	-10.2437
第一	-10.2437
ki	-10.2439
宗教	-10.244
インターネット	-10.2441
dei	-10.2441
分かりません	-10.2444
づけ	-10.2445
▁重要な	-10.2447
ひとつ	-10.2448
ático	-10.2452
個人	-10.2453
600	-10.2455
ピー	-10.2455
▁membros	-10.2458
チェ	-10.2459
▁aparelho	-10.2459
▁universidade	-10.2459
pol	-10.2461
▁pudesse	-10.2461
達成	-10.2461
安定	-10.2461
▁ロボット	-10.2461
ないこと	-10.247
▁enviar	-10.2473
種類	-10.2479
提案	-10.2482
建設	-10.2484
▁第	-10.2485
▁今まで	-10.2486
▁誰	-10.249
ステ	-10.2495
古い	-10.2495
の大きさ	-10.2499
嫌	-10.25
ka	-10.25
すべての	-10.2501
▁posição	-10.2504
辺	-10.2505
▁segura	-10.2505
はどう	-10.2512
起こる	-10.2517
▁organização	-10.2522
▁felicidade	-10.2528
▁aberto	-10.2529
▁modelos	-10.253
ためです	-10.2531
▁デザイン	-10.2533
▁学校	-10.2535
次の	-10.2536
見せ	-10.2539
ないように	-10.2539
▁troca	-10.2541
業界	-10.2542
を集め	-10.2543
▁apresenta	-10.2543
▁querer	-10.2547
▁acabou	-10.2551
software	-10.2551
▁estrada	-10.2551
欲しい	-10.2552
▁lembrar	-10.2552
▁tocar	-10.2554
cin	-10.2558
pal	-10.2558
▁provoca	-10.2562
導	-10.2564
尋ね	-10.2564
毒	-10.2567
為	-10.2571
食べ	-10.2572
íveis	-10.2573
家の	-10.2574
▁genética	-10.2574
▁acima	-10.2574
活	-10.2582
メッセージ	-10.2583
信	-10.2585
捕	-10.2597
サイト	-10.2602
1%	-10.2604
があるのです	-10.2607
将来	-10.261
we	-10.2615
responsabilidade	-10.262
▁toca	-10.2622
▁peixe	-10.2633
▁sonho	-10.2635
年後	-10.2638
するという	-10.264
単純な	-10.264
治	-10.2643
▁temperatura	-10.2643
és	-10.2645
j	-10.2647
▁negócios	-10.2647
ようになります	-10.2649
▁esteja	-10.2649
▁vale	-10.2651
道を	-10.2655
▁今の	-10.2657
いたのです	-10.2658
▁ニューヨーク	-10.2665
総	-10.2666
▁telefone	-10.2666
衝突	-10.2666
があれば	-10.2669
▁controlar	-10.2671
▁colo	-10.2672
バイオ	-10.2672
▁poli	-10.2674
の話を	-10.2676
億人	-10.268
▁fome	-10.268
これらの	-10.2681
tação	-10.2682
を調べ	-10.2683
我々は	-10.2684
tivas	-10.2687
▁descobri	-10.2689
▁すぐに	-10.269
億ドル	-10.269
傾向	-10.269
オンライン	-10.269
▁そこから	-10.269
監視	-10.269
▁níveis	-10.269
心の	-10.2691
特別な	-10.2693
られている	-10.2693
▁ほとんどの	-10.2695
ém	-10.2702
を探し	-10.2703
▁envolve	-10.2704
▁reconhecer	-10.2705
▁começam	-10.2706
を見ると	-10.2708
に対し	-10.2708
▁parecem	-10.271
一緒に	-10.2711
富	-10.2713
americana	-10.2713
を通じて	-10.2713
▁veio	-10.2713
▁生	-10.2719
▁アメリカの	-10.272
アップ	-10.2722
を持っています	-10.2722
労働	-10.2724
cional	-10.2726
術	-10.273
▁自	-10.2733
▁He	-10.2735
乱	-10.2736
▁prisão	-10.2736
町	-10.2736
▁região	-10.2736
▁connosco	-10.2736
▁abordagem	-10.2737
▁instituições	-10.2737
席	-10.2737
数は	-10.2739
▁Fe	-10.2751
医師	-10.2752
▁vimos	-10.2753
防	-10.2759
混	-10.2759
▁cadeia	-10.276
▁健康	-10.2765
変わり	-10.2776
会議	-10.2777
▁24	-10.2778
▁脳の	-10.2779
▁planta	-10.2779
半分	-10.2779
▁rendimento	-10.2783
▁conteúdo	-10.2783
師	-10.2787
▁vivemos	-10.2787
▁conhecemos	-10.2796
人工	-10.2796
▁皆さんに	-10.2799
▁próximos	-10.2804
▁誰か	-10.2805
ちょっと	-10.2806
感謝	-10.2807
重要です	-10.2808
▁moléculas	-10.281
▁fase	-10.2812
▁Fui	-10.2812
ler	-10.2814
期間	-10.2824
するのか	-10.2824
ようになる	-10.2826
つもり	-10.2833
▁ハ	-10.2834
▁alteração	-10.2836
かも	-10.2838
▁イ	-10.2841
▁valores	-10.2841
作る	-10.2842
に入り	-10.2842
▁criação	-10.2843
戦い	-10.2844
とした	-10.2845
お金を	-10.2848
グラフ	-10.285
▁acha	-10.2851
復	-10.2851
離	-10.2851
養	-10.2854
▁cidadãos	-10.2854
▁telemóvel	-10.2854
基準	-10.2854
本の	-10.2856
あれ	-10.286
必要がある	-10.2864
ができる	-10.2867
▁usado	-10.2867
▁hipótese	-10.2871
gente	-10.2871
▁Sabem	-10.2876
刑務所	-10.2878
奴隷	-10.2878
ドイツ	-10.2878
▁partículas	-10.2879
▁nele	-10.2879
▁respostas	-10.2882
▁formação	-10.2883
分かった	-10.2885
▁その結果	-10.289
農業	-10.289
すごい	-10.2891
▁Quer	-10.2892
ってきた	-10.2893
と言って	-10.2893
抗	-10.29
給	-10.2901
▁multi	-10.2901
馬	-10.2901
▁governa	-10.2901
▁mistura	-10.2901
考えた	-10.2902
くれ	-10.2906
▁evitar	-10.2906
思っている	-10.2912
nge	-10.2918
▁princípio	-10.2919
vida	-10.292
減少	-10.2921
amente	-10.2924
浮	-10.2925
▁mês	-10.2925
▁forem	-10.2927
▁bio	-10.2929
▁liberta	-10.2934
▁bebés	-10.2936
自体	-10.294
▁frequentemente	-10.2951
思い出	-10.2951
▁poderoso	-10.2953
かというと	-10.2957
pos	-10.2958
▁liga	-10.2959
耳	-10.2965
いている	-10.2965
▁cá	-10.2969
▁daquele	-10.2973
▁cheio	-10.2973
zi	-10.2974
るもの	-10.298
すぐに	-10.2985
▁usada	-10.2985
▁人々の	-10.2991
pen	-10.2995
疾患	-10.2996
▁daqui	-10.2996
▁chão	-10.2997
平和	-10.2997
父親	-10.2998
長く	-10.3
発表	-10.3002
自身の	-10.3003
▁bola	-10.3004
▁políticos	-10.3005
折	-10.3008
科	-10.3008
用の	-10.3009
制	-10.301
チャー	-10.3012
視点	-10.3019
▁Fi	-10.3019
▁porquê	-10.3021
てしまった	-10.3021
▁terceiro	-10.3021
▁terreno	-10.3021
確か	-10.3022
患者の	-10.3024
▁cama	-10.3025
▁ponta	-10.3027
するには	-10.3028
をかけ	-10.3033
▁curso	-10.3034
以前	-10.3043
水を	-10.3043
ura	-10.3043
十分	-10.3044
▁Embora	-10.3045
▁avião	-10.3045
貧しい	-10.3046
に戻り	-10.3048
公共	-10.3049
tenta	-10.3052
人間が	-10.3054
埋め	-10.3054
していること	-10.3058
でさえ	-10.3063
▁パ	-10.3065
るような	-10.3069
巣	-10.3069
挑戦	-10.307
▁solo	-10.3071
▁jogos	-10.3073
rd	-10.3074
力が	-10.3075
暴	-10.3078
気分	-10.3079
工場	-10.3079
▁encontro	-10.308
はその	-10.3086
▁少なくとも	-10.3087
▁sentem	-10.3087
▁branco	-10.309
酸	-10.3093
▁ciclo	-10.3093
▁sobretudo	-10.3094
衛星	-10.3094
製造	-10.3094
少女	-10.3094
せず	-10.3094
▁cheia	-10.3095
▁pra	-10.3095
キング	-10.3096
▁gráfico	-10.3101
cel	-10.3106
▁olha	-10.3106
▁tarefa	-10.3114
てみると	-10.3116
階	-10.3117
問題です	-10.3117
人たちが	-10.3118
受	-10.3123
▁atual	-10.3124
応	-10.3125
認め	-10.3127
▁medicamentos	-10.3127
アメリカ人	-10.3127
見えない	-10.3135
▁こうして	-10.3135
告	-10.314
速度	-10.3145
持	-10.3146
▁grava	-10.3147
無理	-10.3151
心を	-10.3153
▁perda	-10.3155
X	-10.316
▁Todas	-10.3163
▁recente	-10.3165
というもの	-10.3166
▁Universidade	-10.3166
偽	-10.3166
匹	-10.3166
▁breve	-10.3167
決断	-10.3167
▁cozinha	-10.3169
単純	-10.317
移	-10.3174
▁sobreviver	-10.3175
くる	-10.318
をした	-10.3182
ag	-10.3184
▁roda	-10.3184
▁tornam	-10.3186
▁necessidade	-10.3189
縮	-10.319
▁basicamente	-10.3191
▁Muitos	-10.3193
▁歴史	-10.3194
▁必要な	-10.3196
られて	-10.3196
技術を	-10.32
ps	-10.3203
低い	-10.3207
医	-10.3211
ルール	-10.3211
国々	-10.3212
待	-10.3212
cê	-10.3214
▁inovação	-10.3215
▁beleza	-10.3215
免疫	-10.3215
ニューロン	-10.3216
▁recebi	-10.3217
▁voar	-10.3217
támos	-10.3227
クリス	-10.3227
▁クリス	-10.3228
▁遺伝子	-10.3229
まず	-10.3232
を作りました	-10.3234
▁Ar	-10.3236
そこ	-10.3237
こう言いました	-10.3238
ワクチン	-10.324
操作	-10.3241
なさい	-10.3241
センター	-10.3241
当て	-10.3242
となりました	-10.3244
することができます	-10.3247
不足	-10.3248
▁peixes	-10.3251
フォー	-10.3251
▁Faz	-10.3254
ニュー	-10.3258
ますか	-10.3263
Q	-10.3264
ren	-10.3264
70	-10.328
上がり	-10.3284
対処	-10.3286
剤	-10.3288
▁estranha	-10.3289
石油	-10.329
そうと	-10.3291
海洋	-10.3291
みたい	-10.3292
例を	-10.3292
▁Outra	-10.3295
▁必要	-10.3295
子供の	-10.3296
唯一の	-10.3296
であれ	-10.3299
生活を	-10.33
色の	-10.3306
民	-10.3312
rado	-10.3312
▁inteligente	-10.3314
▁chegou	-10.3314
▁soluções	-10.3314
▁repeti	-10.3314
睡眠	-10.3314
▁vejo	-10.3314
国で	-10.3315
▁zero	-10.3315
組み	-10.3317
だろうと	-10.3333
黒	-10.3335
Que	-10.3335
ham	-10.3338
▁decisão	-10.3339
uro	-10.334
▁fomos	-10.3342
▁leis	-10.3343
すぎる	-10.3346
ーター	-10.335
ダン	-10.335
立場	-10.3352
飲	-10.3355
脳の	-10.3355
人もいます	-10.3359
gado	-10.336
▁emoções	-10.3365
事故	-10.3366
▁ocupa	-10.3366
をしている	-10.3367
▁sentimento	-10.3368
願	-10.3368
▁lu	-10.3377
製	-10.3377
もありました	-10.3383
連れて	-10.3384
なりました	-10.3384
いれば	-10.3386
ias	-10.3388
▁相手	-10.3388
▁propósito	-10.3389
逃げ	-10.3389
▁forças	-10.339
がありません	-10.3391
者に	-10.3394
で最も	-10.3395
▁Si	-10.3396
ガス	-10.3397
▁その時	-10.3399
▁governos	-10.3401
するもの	-10.3401
日本	-10.3402
▁Elas	-10.3402
わかりません	-10.3406
驚き	-10.3408
▁revolução	-10.3414
牛	-10.3414
栄養	-10.3414
バン	-10.3414
完全に	-10.3416
▁ほんの	-10.3416
しましたが	-10.3416
生きる	-10.3417
▁neurónios	-10.3418
能	-10.342
知られ	-10.3425
▁Tal	-10.3426
やる	-10.3427
▁cores	-10.3427
エン	-10.3427
▁funda	-10.3428
の上に	-10.3428
マス	-10.3431
未	-10.3432
▁barco	-10.3432
▁combina	-10.3434
▁matar	-10.3434
▁完全に	-10.3438
▁análise	-10.3439
▁científica	-10.3439
▁Norte	-10.3439
25	-10.3445
▁possamos	-10.3446
▁conce	-10.3447
♫	-10.3448
men	-10.3449
簡単な	-10.3449
▁tido	-10.345
こそが	-10.345
▁皆さんが	-10.3452
になっている	-10.3452
何度も	-10.3453
させます	-10.3456
▁rapaz	-10.3458
実行	-10.3459
▁私達	-10.3463
▁ganha	-10.3469
▁alimentos	-10.3471
tão	-10.3475
▁音楽	-10.3475
▁&	-10.3476
人で	-10.3477
ることです	-10.3477
収	-10.3482
rea	-10.3483
構成	-10.3484
皆さんに	-10.3487
▁casas	-10.3487
▁rápida	-10.3489
▁300	-10.3492
もある	-10.3498
私たちに	-10.3498
ノー	-10.3499
していく	-10.3511
西	-10.3513
▁desenho	-10.3515
izada	-10.3515
▁New	-10.3516
▁políticas	-10.3517
はない	-10.3519
するための	-10.352
▁novamente	-10.3521
▁fotos	-10.3522
た時	-10.3527
思った	-10.3528
シェ	-10.3528
ければ	-10.353
nes	-10.3533
鳴	-10.3539
床	-10.354
▁ótimo	-10.354
法則	-10.354
を持っている	-10.3541
▁通常	-10.3541
▁fonte	-10.3543
基本的な	-10.3547
キー	-10.3551
に行き	-10.3551
でない	-10.3555
▁brilhante	-10.3561
恋	-10.3564
▁pressão	-10.3565
stress	-10.3566
起こった	-10.3567
▁皆さんの	-10.3567
らず	-10.3567
明らか	-10.3568
集中	-10.3568
少ない	-10.3574
ラス	-10.3575
もし	-10.3576
ロス	-10.3577
づ	-10.358
変わる	-10.3582
事業	-10.3589
教授	-10.3591
論文	-10.3592
▁daquela	-10.3592
自分が	-10.3592
▁encontrei	-10.3593
▁árvore	-10.3594
▁こちらは	-10.3598
痛	-10.3601
vin	-10.3601
なりません	-10.3605
▁décadas	-10.3606
最近	-10.3609
▁自分で	-10.3609
▁estive	-10.3612
▁gigante	-10.3616
握	-10.3616
延	-10.3616
秘密	-10.3616
終	-10.3616
▁encontramos	-10.3617
内の	-10.362
わけ	-10.3621
▁felizes	-10.3624
できました	-10.3626
▁科学者	-10.3626
▁DNA	-10.3627
▁今や	-10.3627
日々	-10.3629
▁atingir	-10.3634
▁revela	-10.3635
▁meia	-10.3636
登	-10.3639
▁Ex	-10.364
▁raio	-10.3643
なければならない	-10.3645
あなたの	-10.365
land	-10.3651
誰か	-10.3652
聞いた	-10.3655
建て	-10.3656
自ら	-10.3656
両方	-10.3658
てくれます	-10.3661
葉	-10.3667
▁História	-10.3667
▁estratégia	-10.3667
▁plástico	-10.3667
テーマ	-10.3667
できること	-10.3669
▁surpreendente	-10.367
そこに	-10.3676
▁Marte	-10.3676
▁Muitas	-10.3677
▁funcionam	-10.3678
怒り	-10.368
▁An	-10.3689
▁vontade	-10.3693
チャンス	-10.3693
生き物	-10.3694
工	-10.3694
有名な	-10.3694
どれ	-10.3695
大切な	-10.3698
▁objeto	-10.3698
▁leve	-10.3703
思います	-10.3705
▁今は	-10.3706
るのに	-10.371
習	-10.3713
ちゃ	-10.3719
年齢	-10.3721
▁mental	-10.3721
gui	-10.3723
▁それとも	-10.3724
▁momentos	-10.3731
というものです	-10.3733
▁armas	-10.3734
検	-10.3737
幅	-10.3744
▁frequência	-10.3745
供給	-10.3745
▁unidade	-10.3745
意図	-10.3746
次元	-10.3747
抜	-10.375
をしています	-10.375
▁いかに	-10.3756
一部	-10.3758
▁愛	-10.3761
作られ	-10.3764
▁eficaz	-10.3765
オス	-10.3766
▁êxito	-10.377
新たな	-10.3771
絶滅	-10.3771
▁receita	-10.3771
生存	-10.3773
を入れ	-10.3776
▁artista	-10.3777
計	-10.3783
働く	-10.3789
並	-10.3792
滅	-10.3793
▁Wi	-10.3795
させて	-10.3796
▁Algumas	-10.3796
▁química	-10.3796
演	-10.3798
を見た	-10.3799
▁rosto	-10.3801
▁Estados	-10.3806
▁John	-10.3809
▁最	-10.381
ダイ	-10.3812
内で	-10.3813
働いて	-10.3817
▁Nem	-10.3821
誘	-10.3822
どんどん	-10.3822
演奏	-10.3823
脳は	-10.3823
▁má	-10.3824
からね	-10.3825
番	-10.3826
;/	-10.3827
地域の	-10.3828
▁確かに	-10.3831
と言います	-10.3832
デン	-10.3832
スー	-10.3836
▁太陽	-10.384
電気	-10.3842
▁お互い	-10.3844
ション	-10.3848
の中の	-10.3852
費用	-10.3853
話題	-10.3854
▁gera	-10.3856
▁precisava	-10.3857
ごとに	-10.3858
▁私にとって	-10.3859
▁それぞれ	-10.386
うる	-10.3861
▁publica	-10.3864
至	-10.3864
残り	-10.3865
えば	-10.3868
▁nove	-10.3874
挙げ	-10.3874
貢献	-10.3875
▁importância	-10.3875
を探	-10.3875
素材	-10.3875
▁bocado	-10.3879
役割	-10.388
ético	-10.3885
のみ	-10.3885
現れ	-10.3886
▁dão	-10.3886
ハー	-10.3892
▁みなさん	-10.3892
▁すごく	-10.3897
の写真	-10.3898
グローバル	-10.3901
輪	-10.3901
鍵	-10.3901
小さく	-10.3901
周囲	-10.3901
情熱	-10.3902
▁先	-10.3902
単なる	-10.3902
収入	-10.3903
▁他人	-10.3903
▁serviço	-10.391
させた	-10.3914
を食べ	-10.3915
突	-10.3916
共感	-10.3918
ることができ	-10.3925
ássemos	-10.3925
▁presidente	-10.3927
▁Chris	-10.3927
▁origem	-10.3927
に向かって	-10.3933
▁usá	-10.3945
guei	-10.3947
▁dispositivo	-10.3954
▁incrivelmente	-10.3954
の仕事	-10.3959
▁自己	-10.3959
▁recentemente	-10.3961
▁morta	-10.3962
なのは	-10.3966
時は	-10.3967
加	-10.3968
暗	-10.3968
▁aula	-10.3969
若	-10.3973
決	-10.3974
▁jogar	-10.3975
どのような	-10.3976
行って	-10.398
▁crime	-10.398
汚染	-10.398
商品	-10.3981
の人が	-10.3983
▁そのため	-10.3984
▁arranjar	-10.3984
▁aparecer	-10.3987
きて	-10.3987
▁bar	-10.3988
続き	-10.3993
しなければなりません	-10.3994
▁camada	-10.3998
なのに	-10.4
▁Ge	-10.4002
▁うまく	-10.4003
inhos	-10.4004
危険な	-10.4007
幸福	-10.4007
▁programas	-10.4019
▁olho	-10.402
▁明らかに	-10.4022
私を	-10.4028
得られる	-10.403
見えます	-10.4031
▁complexa	-10.4033
▁escrita	-10.4033
▁inteligentes	-10.4034
かい	-10.4034
▁cadeira	-10.4034
携帯電話	-10.4034
▁parti	-10.4035
▁ヨーロッパ	-10.4036
▁vento	-10.4037
uma	-10.4044
▁década	-10.4044
tê	-10.4044
るのか	-10.4045
▁diria	-10.4045
20%	-10.4048
▁tom	-10.4048
▁segui	-10.4053
点は	-10.4056
砂	-10.406
デザイナー	-10.406
丸	-10.406
盗	-10.406
izados	-10.4061
人たちは	-10.4062
備	-10.4064
数の	-10.4065
▁aparece	-10.407
porta	-10.407
▁descoberta	-10.4071
人です	-10.4072
していません	-10.4072
を見せ	-10.4078
▁この写真	-10.408
声を	-10.408
▁皆さんは	-10.4083
▁fantástica	-10.4087
窓	-10.4087
▁fossem	-10.4089
▁prova	-10.409
ファー	-10.4096
革新	-10.41
何故	-10.4101
bar	-10.4102
▁映画	-10.4112
脚	-10.4113
▁fotografias	-10.4116
高校	-10.4118
どうやって	-10.4121
触	-10.4128
çam	-10.413
を引き	-10.4138
▁Mundial	-10.414
がいます	-10.4141
を示し	-10.4143
自動車	-10.4143
古	-10.4145
▁rapariga	-10.4153
人種	-10.4157
書いた	-10.4163
量の	-10.4166
音を	-10.4167
▁probabilidade	-10.4167
▁espero	-10.4167
酸素	-10.4168
送り	-10.417
極めて	-10.417
▁errada	-10.4172
▁イギリス	-10.4174
遠	-10.4176
▁profundamente	-10.4177
▁pernas	-10.4178
rico	-10.4183
維持	-10.4186
▁podermos	-10.4187
証	-10.4189
▁utilizar	-10.4191
▁vindo	-10.4192
覆	-10.4194
賞	-10.4194
善	-10.4194
▁culpa	-10.4194
呼吸	-10.4194
戦略	-10.4195
に住む	-10.4195
んでいる	-10.4197
▁tema	-10.4198
▁お金	-10.4199
トーク	-10.4204
velmente	-10.4204
を理解する	-10.4216
culo	-10.4219
ró	-10.4219
飲み	-10.4221
▁independente	-10.4221
▁cirurgia	-10.4221
俺	-10.4221
▁profundo	-10.4221
▁avó	-10.4222
▁custa	-10.4222
スク	-10.4224
▁adiciona	-10.4225
▁oportunidades	-10.4226
▁戦争	-10.4227
▁rapazes	-10.4227
▁resulta	-10.4228
▁debate	-10.4229
▁Sol	-10.4232
してしまう	-10.4235
高く	-10.4236
▁boca	-10.4241
▁igual	-10.4241
いき	-10.4242
▁familiar	-10.4243
てくれ	-10.4248
▁sequência	-10.4249
▁palco	-10.4249
▁planetas	-10.425
▁進化	-10.4252
そのもの	-10.4253
▁Pi	-10.4256
眠	-10.4262
理想	-10.4262
▁tira	-10.4262
歩き	-10.4265
時点で	-10.4267
▁今日は	-10.4268
▁Unidos	-10.4268
みたいな	-10.427
念	-10.4273
号	-10.4274
▁motor	-10.4276
▁literalmente	-10.4276
▁função	-10.4276
▁debaixo	-10.4276
▁organizações	-10.4276
炭素	-10.4276
ntei	-10.4281
hu	-10.4288
生物学	-10.4289
▁parede	-10.4291
互いに	-10.4291
quei	-10.4298
フランス	-10.4302
▁fábrica	-10.4303
の歴史	-10.4304
しており	-10.4306
静	-10.4311
form	-10.4312
▁elementos	-10.4314
質問を	-10.4314
手法	-10.4315
初	-10.4318
▁semelhante	-10.4318
をもたらし	-10.4319
を求め	-10.4321
様な	-10.4327
ベン	-10.4328
荷	-10.4331
適応	-10.4331
食事	-10.4333
ssemos	-10.4334
ana	-10.4335
▁projetos	-10.4335
降り	-10.4336
白人	-10.4338
場で	-10.4339
ろう	-10.4341
めて	-10.4348
▁resta	-10.4349
▁何百	-10.4355
雨	-10.4358
向上	-10.4359
同士	-10.4359
▁Havia	-10.4359
▁investigadores	-10.436
▁moral	-10.4361
域	-10.4364
▁For	-10.4368
▁visita	-10.4376
▁mover	-10.4376
▁refugiados	-10.4377
手の	-10.4377
▁Somos	-10.4382
やめ	-10.4385
恐ろしい	-10.4386
▁revista	-10.4386
vem	-10.439
▁segundos	-10.4391
▁canto	-10.4392
犯	-10.4393
fro	-10.4395
万ドル	-10.4396
出身	-10.4397
age	-10.4399
適切な	-10.44
▁個人	-10.4402
となって	-10.4404
球	-10.4405
▁casamento	-10.4405
などです	-10.4406
大気	-10.4411
園	-10.4411
を示す	-10.4412
時には	-10.4412
日の	-10.4413
▁integra	-10.4413
集め	-10.4414
心臓	-10.4414
▁apanhar	-10.4415
登場	-10.4416
10%	-10.4418
画面	-10.4419
▁vêm	-10.4428
▁filmes	-10.443
▁zona	-10.4431
▁tecido	-10.4432
来て	-10.4432
▁数学	-10.4434
に行って	-10.4434
▁versão	-10.4434
ることができる	-10.4438
森	-10.4441
肺	-10.4441
▁excelente	-10.4441
二酸化炭素	-10.4441
確率	-10.4445
spo	-10.4445
▁cedo	-10.4451
していると	-10.4452
だという	-10.4461
加え	-10.4464
比較	-10.4465
就	-10.4469
述べ	-10.4469
▁aberta	-10.447
17	-10.4475
ologia	-10.4475
▁menor	-10.4479
mico	-10.4479
▁aprendemos	-10.4481
▁以前	-10.4483
▁見つけ	-10.4484
▁alterar	-10.4485
体内	-10.4489
然	-10.449
疑	-10.4492
にとっては	-10.4496
▁companhia	-10.4497
▁registo	-10.4497
十分な	-10.4497
▁roupa	-10.4497
隊	-10.4497
測定	-10.4497
▁pedra	-10.4497
tual	-10.4498
▁loja	-10.4498
▁grave	-10.4499
訴え	-10.45
の中心	-10.4507
カン	-10.4513
毎日	-10.4513
大学の	-10.4515
▁negro	-10.4515
▁身体	-10.4516
たいと思います	-10.4517
▁僕の	-10.4518
▁nuclear	-10.4519
2%	-10.452
行う	-10.452
罪	-10.4523
▁americanos	-10.4524
lógico	-10.4524
博士	-10.4524
▁círculo	-10.4524
▁género	-10.4524
▁necessária	-10.4524
夏	-10.4524
▁terrível	-10.4525
支持	-10.4525
▁Cor	-10.4529
学ぶ	-10.4531
▁更に	-10.4532
val	-10.4535
管	-10.4536
だということです	-10.4538
▁rece	-10.4542
女性の	-10.4545
何千	-10.4546
響	-10.4552
アジア	-10.4552
herói	-10.4553
ついた	-10.4553
繋がり	-10.4553
爆発	-10.4554
▁paz	-10.4554
▁chave	-10.4554
▁Che	-10.4554
ることが	-10.4557
彼らの	-10.4557
▁Porquê	-10.4559
方に	-10.4559
変革	-10.456
必要な	-10.4565
大人	-10.4569
共に	-10.4572
▁国際	-10.4576
トップ	-10.4577
▁ocorre	-10.4579
▁central	-10.4581
ゲノム	-10.4581
援助	-10.4581
plic	-10.4581
ているのは	-10.4585
fere	-10.4586
違った	-10.4586
システムを	-10.4587
dita	-10.4589
▁Toda	-10.4589
だと思う	-10.4592
二つの	-10.4595
eiras	-10.4599
やすく	-10.4609
▁guia	-10.461
失われ	-10.4613
rro	-10.4613
▁avançar	-10.4618
cita	-10.4621
体を	-10.4622
ものの	-10.4624
群	-10.463
ものと	-10.463
▁arquitetura	-10.4637
▁janela	-10.4637
▁Outro	-10.4637
ância	-10.4638
活動を	-10.4643
▁そこには	-10.4645
▁defini	-10.4646
見られます	-10.4646
▁soube	-10.4647
▁conhecida	-10.465
▁cura	-10.4652
てくれた	-10.4652
ウェ	-10.4655
のようなもの	-10.4657
▁artistas	-10.4658
▁左	-10.4662
pu	-10.4662
▁lembra	-10.4664
▁certas	-10.4664
コントロール	-10.4665
たいと	-10.4668
ったら	-10.4668
▁parque	-10.4671
した時	-10.4672
物体	-10.4676
▁先ほど	-10.468
スタ	-10.4684
年も	-10.4685
院	-10.4691
▁いくつかの	-10.4692
才	-10.4693
護	-10.4693
▁banco	-10.4696
ほう	-10.4696
考えました	-10.4698
職場	-10.4705
▁自由	-10.471
▁最初に	-10.4713
オン	-10.472
▁café	-10.4722
▁convosco	-10.4722
競争	-10.4722
以下	-10.4723
▁gene	-10.4726
工学	-10.4726
一体	-10.4729
無視	-10.4732
を受けた	-10.4733
簡単に	-10.4737
際に	-10.4737
ron	-10.4747
▁Natureza	-10.4751
▁imenso	-10.4751
アイデアを	-10.4754
することを	-10.4758
art	-10.4763
数年	-10.4764
できるか	-10.4768
▁gostam	-10.4768
ント	-10.4769
tó	-10.4772
わない	-10.4772
▁medir	-10.4773
▁físico	-10.4774
たちに	-10.4774
▁Ri	-10.4775
アクセス	-10.4779
勇気	-10.478
観客	-10.478
だけが	-10.4781
▁異なる	-10.4785
所有	-10.4785
inc	-10.4786
することに	-10.4789
▁ところが	-10.4791
tada	-10.4793
▁proteínas	-10.4796
題	-10.4801
▁dança	-10.4801
フォ	-10.4802
▁彼女が	-10.4804
てしまいます	-10.4805
▁死	-10.4805
posição	-10.4807
▁atmosfera	-10.4808
▁justiça	-10.4808
▁respeito	-10.4808
胸	-10.4808
▁superior	-10.4808
教室	-10.4809
死ぬ	-10.481
子供が	-10.4814
fre	-10.4814
▁Ni	-10.4815
▁非	-10.4822
▁viva	-10.4824
▁traz	-10.4824
月に	-10.4825
学んだ	-10.4826
▁testes	-10.4828
▁adultos	-10.4829
可	-10.483
▁まずは	-10.4834
▁nela	-10.4835
腫瘍	-10.4837
がいる	-10.4838
▁biologia	-10.4838
分からない	-10.484
ニック	-10.4841
来ました	-10.4841
自信	-10.4841
全てが	-10.4841
じゃ	-10.4842
大陸	-10.4843
コード	-10.4845
になるでしょう	-10.4846
家に	-10.4847
求め	-10.4853
▁毎年	-10.4854
▁perigo	-10.4857
色々	-10.4858
▁各	-10.4858
▁encontram	-10.4859
微	-10.4861
具	-10.4862
たかった	-10.4863
投	-10.4865
包	-10.4866
▁Guerra	-10.4866
▁maravilhoso	-10.4866
▁médica	-10.4866
▁acorda	-10.4867
▁contacto	-10.4869
ç	-10.4869
要因	-10.487
▁夜	-10.4873
ではないのです	-10.4876
▁estuda	-10.4877
cei	-10.4877
出しました	-10.4879
▁自ら	-10.488
継	-10.4895
▁antigo	-10.4895
=	-10.4895
しゃ	-10.4897
進む	-10.4897
正しく	-10.4898
▁manda	-10.4898
▁sentia	-10.4901
離れた	-10.4901
▁sendo	-10.4901
ボール	-10.4902
▁negros	-10.4905
したいと思います	-10.4908
可能性を	-10.4908
かつ	-10.4908
物語を	-10.4909
luc	-10.4914
起きている	-10.492
であった	-10.4924
コミュニケーション	-10.4924
完成	-10.4924
スーパー	-10.4925
限界	-10.4925
▁calor	-10.4928
貧困	-10.493
▁desaparece	-10.493
▁diferenças	-10.4932
と呼ばれ	-10.4932
▁atingi	-10.4935
クロ	-10.4938
▁aves	-10.4941
誰も	-10.4946
▁意識	-10.4948
思われ	-10.4951
築	-10.4953
▁curva	-10.4953
▁Ver	-10.4954
▁poucos	-10.4955
▁queriam	-10.4959
と同じように	-10.4965
簡単	-10.4966
ot	-10.4968
のおかげで	-10.497
うちに	-10.4974
はある	-10.4974
可能です	-10.4981
▁terceira	-10.4982
カリフォルニア	-10.4982
とおり	-10.4982
▁trabalhadores	-10.4986
考えてみてください	-10.4986
どれほど	-10.4989
Mas	-10.499
▁geo	-10.4994
進んで	-10.4997
ネット	-10.4998
育て	-10.5
▁pega	-10.5002
▁colabora	-10.5004
を使った	-10.5004
サル	-10.5005
▁tro	-10.5007
短	-10.5009
▁fenómeno	-10.5012
▁saudável	-10.5012
羽	-10.5012
後の	-10.5012
混乱	-10.5012
番組	-10.5012
となった	-10.5015
▁sentado	-10.5016
▁quiserem	-10.5017
▁sentimos	-10.5018
▁bela	-10.5026
▁sermos	-10.5028
字	-10.5032
携帯	-10.5041
鉄	-10.5041
ケース	-10.5041
▁parceiro	-10.5041
▁segredo	-10.5042
▁imediatamente	-10.5043
▁acham	-10.5043
▁estiver	-10.5047
▁atualmente	-10.505
いう	-10.5051
我々が	-10.5052
ポー	-10.5053
▁linhas	-10.5053
日常	-10.5056
内に	-10.506
ピン	-10.5061
劇	-10.5067
▁opera	-10.5068
写	-10.507
易	-10.507
およそ	-10.5071
▁inteira	-10.5071
光を	-10.5071
言います	-10.5072
▁investimento	-10.5072
流行	-10.5074
制作	-10.5075
回転	-10.5078
けば	-10.5079
ner	-10.508
と言った	-10.5081
▁elevado	-10.5082
認知	-10.5084
だよ	-10.5087
校	-10.5088
ração	-10.509
だけでは	-10.5094
学校に	-10.5094
物の	-10.5095
▁Cha	-10.5099
▁página	-10.5099
寄せ	-10.5099
偉大な	-10.51
ativa	-10.5101
▁reação	-10.5102
▁CO	-10.5103
最後の	-10.5104
▁21	-10.5108
▁cabelo	-10.5109
▁がん	-10.511
性質	-10.5112
第	-10.5112
かなり	-10.5112
▁consequências	-10.5117
▁marido	-10.5118
気づき	-10.5119
▁tivessem	-10.5121
▁olharmos	-10.5122
死に	-10.5124
するため	-10.5126
▁Comecei	-10.513
▁diversidade	-10.513
▁televisão	-10.513
▁existir	-10.513
▁コンピューター	-10.5133
ためには	-10.5144
ヴィ	-10.5147
90%	-10.5149
洗	-10.5152
far	-10.5157
環	-10.5159
▁empregos	-10.516
義	-10.5162
始めます	-10.5167
▁escreveu	-10.517
手紙	-10.5175
▁subir	-10.5177
注	-10.518
▁右	-10.5182
歩いて	-10.5182
▁病気	-10.5183
大半	-10.5183
最終的に	-10.5185
が現れ	-10.5186
範囲	-10.5189
▁facilmente	-10.5189
住む	-10.5191
▁pacientes	-10.5194
取引	-10.5198
▁cena	-10.5202
▁こちら	-10.5202
さら	-10.5204
るのが	-10.5208
▁取り	-10.521
▁reais	-10.5211
cá	-10.5214
ディー	-10.5216
▁ondas	-10.5216
技	-10.5219
▁Ninguém	-10.5219
▁compaixão	-10.5219
ロンドン	-10.5219
▁folha	-10.522
筋肉	-10.522
を与える	-10.522
新聞	-10.5221
交通	-10.5222
▁aplica	-10.5223
対話	-10.5223
▁言語	-10.5225
▁desenhar	-10.5231
cada	-10.5234
▁irmã	-10.5236
▁nota	-10.5239
左	-10.5241
ança	-10.5241
もちろん	-10.5242
▁誰が	-10.5244
▁ativa	-10.5246
▁principais	-10.5249
▁depressão	-10.525
講演	-10.525
▁criatividade	-10.525
▁corrente	-10.5254
何でも	-10.5257
▁1000	-10.5262
環境に	-10.5263
Sabe	-10.5264
▁deviam	-10.5271
奇妙な	-10.5271
時代に	-10.5279
▁apercebe	-10.528
▁opinião	-10.528
幸運	-10.528
▁ordem	-10.528
兵士	-10.528
触れ	-10.5281
▁diretamente	-10.5282
使って	-10.5285
とともに	-10.5287
するように	-10.5287
駆	-10.5288
▁her	-10.5289
▁voo	-10.529
達が	-10.529
▁地球の	-10.5292
る必要があります	-10.5293
の一つ	-10.5293
▁conhecem	-10.5298
▁garantir	-10.5298
▁informa	-10.5302
伝統	-10.5304
違って	-10.5305
▁Vejam	-10.5306
chi	-10.5308
▁audiência	-10.531
▁económica	-10.531
▁oxigénio	-10.531
取り組む	-10.531
▁demora	-10.531
▁vejam	-10.531
移民	-10.5311
集まり	-10.5311
▁dor	-10.5314
時代の	-10.5314
スタン	-10.5319
レス	-10.532
▁sons	-10.533
年以上	-10.533
ここにいる	-10.5332
▁completa	-10.5333
重力	-10.5335
▁químicos	-10.5337
▁conseguiu	-10.5337
tida	-10.5339
▁individual	-10.534
をもたらす	-10.534
▁ambos	-10.534
▁entend	-10.5341
▁escolhas	-10.5348
の結果	-10.5352
腹	-10.5354
▁Bom	-10.5354
▁inicia	-10.5354
内部	-10.5356
両	-10.5358
平等	-10.5366
それぞれ	-10.5369
蚊	-10.537
トイレ	-10.5371
マラリア	-10.5371
出会い	-10.5371
▁referi	-10.5371
Sim	-10.5375
▁inspira	-10.5375
▁inicial	-10.5378
▁apresentar	-10.5388
を行い	-10.5389
に入る	-10.5397
▁desempenho	-10.5401
興奮	-10.5401
Y	-10.5401
▁単に	-10.5403
ベッド	-10.5403
持っている	-10.5404
特	-10.5407
▁tantas	-10.5408
não	-10.5412
▁誰かが	-10.5413
できて	-10.5414
かかって	-10.5417
を手に	-10.542
政治家	-10.5422
▁nestes	-10.5422
▁adora	-10.5425
▁母親	-10.5426
支え	-10.5426
助	-10.5428
▁adapta	-10.5428
を止め	-10.5429
出る	-10.5429
跡	-10.5431
▁Twitter	-10.5431
▁plataforma	-10.5432
状況を	-10.5432
結論	-10.5433
▁acaso	-10.5433
政治的	-10.5442
▁感情	-10.5443
できるでしょう	-10.5447
マル	-10.5448
▁caça	-10.5449
▁enormes	-10.545
をもって	-10.5451
▁culturas	-10.5454
▁宗教	-10.5457
息	-10.5459
頭に	-10.546
ゾ	-10.5461
狂	-10.5462
変わった	-10.5462
検索	-10.5462
としては	-10.5463
文明	-10.5464
▁ataque	-10.5469
800	-10.5469
▁気候変動	-10.5477
▁pés	-10.5485
の中には	-10.5487
▁ここでは	-10.5487
▁faculdade	-10.5493
▁estilo	-10.5493
▁女性の	-10.5493
ヴァ	-10.5495
する方法	-10.5496
合成	-10.5497
ることを	-10.5498
▁彼らに	-10.5498
結果を	-10.55
tion	-10.55
ゴミ	-10.5502
シア	-10.5506
同じような	-10.5507
思いやり	-10.5509
sen	-10.551
なっている	-10.5512
国内	-10.5513
▁Vo	-10.5518
備え	-10.5519
▁escolhe	-10.552
▁gato	-10.5521
効	-10.5521
老	-10.5521
▁ごく	-10.5522
▁Provavelmente	-10.5524
橋	-10.5524
ユー	-10.5524
打	-10.5528
▁conte	-10.5529
民主主義	-10.5531
bli	-10.5533
だけではありません	-10.5535
満足	-10.5537
▁feitos	-10.5544
▁sai	-10.5548
▁alimenta	-10.5548
設	-10.555
少年	-10.5551
▁consciente	-10.5555
ソフトウェア	-10.5555
謎	-10.5555
▁acidente	-10.5555
勉強	-10.5555
森林	-10.5555
ima	-10.5556
fund	-10.5557
75	-10.5557
ようになり	-10.5559
▁distin	-10.5559
思いました	-10.5559
なんか	-10.5564
耳に	-10.5565
壊	-10.5568
の生活	-10.5572
強力な	-10.5573
▁jornalista	-10.5573
取り上げ	-10.5575
ことだ	-10.5576
80%	-10.5576
様に	-10.5578
降	-10.5579
▁電気	-10.5583
▁公	-10.5585
ユ	-10.5585
眼	-10.5586
▁genoma	-10.5586
ができ	-10.5589
差し	-10.5591
時間の	-10.5593
▁realiza	-10.5596
セン	-10.5597
たった	-10.5598
▁move	-10.5602
▁実際には	-10.5603
▁実に	-10.5613
site	-10.5615
▁julga	-10.5615
▁dúvida	-10.5617
▁mensagens	-10.5617
▁cenário	-10.5617
省	-10.5617
▁fabrica	-10.5617
▁irão	-10.5617
▁interliga	-10.5617
アプリ	-10.5617
の時代	-10.5618
魔法	-10.5618
年で	-10.5618
▁lixo	-10.5619
という言葉	-10.5619
現場	-10.5619
正確に	-10.5619
大事な	-10.562
になるのです	-10.562
二人	-10.5621
▁デジタル	-10.5623
みました	-10.5626
確実	-10.5627
はどうでしょう	-10.5629
周	-10.5637
選手	-10.5644
動物の	-10.5644
▁decidir	-10.5648
樹	-10.5648
事態	-10.5649
▁começamos	-10.565
クラ	-10.565
ときには	-10.5651
正直	-10.5652
▁aceitar	-10.5654
▁complexo	-10.5656
▁conflito	-10.5656
cado	-10.5656
信じています	-10.566
特に	-10.5661
▁trabalha	-10.5663
▁maravilhosa	-10.5663
赤い	-10.5664
姿を	-10.5665
pt	-10.5667
▁すでに	-10.5669
テン	-10.567
もう一度	-10.5673
▁processa	-10.5678
▁大きく	-10.5678
▁Londres	-10.568
▁VIH	-10.568
パートナー	-10.568
▁útil	-10.568
確信	-10.568
材料	-10.568
料理	-10.5681
を持った	-10.5681
fri	-10.5682
サイズ	-10.5683
ついに	-10.5684
既に	-10.5689
▁ignora	-10.569
最初に	-10.569
いきます	-10.5691
世紀の	-10.5691
▁design	-10.5692
共通	-10.5692
▁Hi	-10.5693
同時に	-10.5699
個の	-10.5706
一日	-10.5709
囲	-10.5711
▁escritório	-10.5711
▁específico	-10.5711
▁religião	-10.5711
▁vossas	-10.5716
▁passam	-10.5717
ことができ	-10.5725
振り	-10.5726
当時	-10.573
無く	-10.5731
みます	-10.5734
研究所	-10.5737
岩	-10.5742
偶然	-10.5743
兄弟	-10.5743
観測	-10.5743
男の子	-10.5744
▁trazer	-10.5746
ゲイ	-10.5746
▁cai	-10.5751
の通り	-10.5751
▁gira	-10.5751
▁Hu	-10.5755
手が	-10.5762
▁Tu	-10.5763
表面	-10.5767
▁maneiras	-10.577
▁moderna	-10.5774
砂漠	-10.5774
▁perfeito	-10.5775
でもありません	-10.5778
▁または	-10.5781
体に	-10.5782
▁ferramenta	-10.5784
気づきました	-10.5786
住んで	-10.5793
km	-10.5795
▁Num	-10.5796
売り	-10.5797
聞こえ	-10.58
その他	-10.5802
いても	-10.5802
いたら	-10.5808
▁capital	-10.5808
超	-10.5809
ライン	-10.5814
でなく	-10.5816
ウム	-10.5818
▁características	-10.5818
彼女は	-10.5821
を教え	-10.5823
present	-10.5827
ial	-10.5828
▁terminar	-10.5828
tável	-10.583
cente	-10.5834
全員が	-10.5835
晩	-10.5837
▁espantosa	-10.5838
▁mecanismo	-10.5838
広がり	-10.5841
技術の	-10.5841
解明	-10.5841
報道	-10.5841
▁feitas	-10.5842
買	-10.5842
▁今後	-10.5843
お願い	-10.5847
▁fortes	-10.5847
ファン	-10.5854
思って	-10.5855
トル	-10.5859
▁irmão	-10.5859
▁erro	-10.5861
ことができました	-10.5864
があること	-10.5866
なれば	-10.5868
▁Sem	-10.5868
問題が	-10.5869
称	-10.5869
65	-10.587
礼	-10.587
▁classe	-10.587
待ち	-10.5871
▁estivesse	-10.5882
言うと	-10.5883
▁interessantes	-10.5884
ところに	-10.5885
の違い	-10.5887
は非常に	-10.5888
ster	-10.5893
▁gostava	-10.5898
▁社会的	-10.59
網	-10.5902
▁compreensão	-10.5902
▁expressão	-10.5902
成績	-10.5902
あなたが	-10.5902
有効	-10.5903
iano	-10.5905
▁mata	-10.5909
tima	-10.5913
問題の	-10.5918
▁Man	-10.5919
を受ける	-10.5921
Oh	-10.5922
▁suficientemente	-10.5924
怖	-10.5925
▁私を	-10.5926
adores	-10.5927
庭	-10.593
ヨーロッパ	-10.593
板	-10.5934
▁quadrado	-10.5934
▁texto	-10.5934
文字通り	-10.5936
▁人類の	-10.5936
うこと	-10.5938
出版	-10.594
▁ここから	-10.5941
▁impedir	-10.5942
▁braço	-10.5947
通信	-10.5947
americanos	-10.5951
もあり	-10.5959
ição	-10.596
太陽	-10.5961
grama	-10.5962
▁lança	-10.5963
▁acompanha	-10.5966
▁espacial	-10.5966
ロシア	-10.5969
バル	-10.597
を起こし	-10.5979
▁Posso	-10.598
考えます	-10.5983
▁特定の	-10.5984
の人々が	-10.5984
しているか	-10.5988
▁explica	-10.5988
▁aulas	-10.5989
▁trabalham	-10.599
ようなものです	-10.5994
避け	-10.5995
布	-10.5996
客	-10.5997
▁campanha	-10.5999
▁obviamente	-10.5999
現代	-10.6
単語	-10.6
話です	-10.6001
▁ouvimos	-10.6002
ご紹介	-10.6003
数学	-10.6006
▁Dr	-10.6006
▁地球上	-10.6007
▁それでは	-10.6013
起きた	-10.6014
シン	-10.6017
案	-10.6026
▁açúcar	-10.6031
基礎	-10.6031
靴	-10.6031
象徴	-10.6031
▁monta	-10.6032
応用	-10.6034
▁vender	-10.6035
ドア	-10.6035
コンピューター	-10.6039
14	-10.605
こんな風に	-10.605
▁超	-10.6055
▁reduzi	-10.6057
gin	-10.6058
ことができるのです	-10.606
年代に	-10.606
▁cair	-10.6062
欲	-10.6062
ティー	-10.6062
▁今日の	-10.6062
巨大な	-10.6064
重要なのは	-10.6064
明確	-10.607
社会の	-10.6071
▁両親	-10.6074
ビア	-10.6076
ced	-10.6088
Você	-10.6091
▁tornaram	-10.6093
▁Califórnia	-10.6096
▁abandona	-10.6096
▁eletricidade	-10.6096
▁espantoso	-10.6096
▁orgulho	-10.6096
▁satélite	-10.6096
アプローチ	-10.6096
抵抗	-10.6096
を加え	-10.6096
崩壊	-10.6096
生態系	-10.6097
あの	-10.6098
osas	-10.6098
óli	-10.6099
望む	-10.6099
的には	-10.61
測	-10.61
ライト	-10.6102
みな	-10.6102
学校で	-10.6103
▁encar	-10.6104
ダンス	-10.6104
▁突然	-10.6106
▁espaços	-10.6111
しなかった	-10.6111
以上に	-10.6112
▁tens	-10.6112
▁alvo	-10.6117
たくない	-10.6121
ぬ	-10.6127
介	-10.6127
▁riscos	-10.6128
▁Infelizmente	-10.6129
揺	-10.6129
茶	-10.6129
すばらしい	-10.6129
複数	-10.6132
▁ligações	-10.6135
ard	-10.614
顔を	-10.6145
するでしょう	-10.6147
ずつ	-10.6152
トー	-10.6156
動く	-10.6158
もいます	-10.6159
扱い	-10.616
生きている	-10.6161
▁científico	-10.6162
▁extraordinário	-10.6162
大丈夫	-10.6162
曜	-10.6162
▁transporte	-10.6162
▁emocional	-10.6162
▁Disse	-10.6163
▁Senti	-10.6165
探し	-10.6169
duz	-10.6173
27	-10.6174
いること	-10.6182
▁NASA	-10.6185
▁olhamos	-10.6186
▁certamente	-10.6188
価格	-10.6191
示す	-10.6194
▁veículo	-10.6195
アーティスト	-10.6195
奥	-10.6195
脅威	-10.6195
▁gás	-10.6195
▁negra	-10.6196
▁estruturas	-10.6198
▁当然	-10.6201
られません	-10.6203
▁dormir	-10.6205
au	-10.6206
実験を	-10.6207
▁視覚	-10.6208
▁carne	-10.621
▁長い	-10.6211
社会的	-10.6214
▁poderem	-10.6216
の後	-10.6216
地域で	-10.6216
れて	-10.6216
ドリ	-10.6217
教会	-10.6226
試験	-10.6228
▁vulgar	-10.6228
スポーツ	-10.6228
▁naturais	-10.6228
▁ありがとうございます	-10.6228
ってきました	-10.623
iana	-10.6234
▁analisar	-10.6234
▁enfrentar	-10.6235
▁imaginação	-10.6235
ことですが	-10.6235
臓器	-10.6236
道路	-10.6238
合わせて	-10.6238
▁どちら	-10.624
▁peças	-10.6243
手助け	-10.6246
張	-10.6248
トロ	-10.6251
▁問題は	-10.6256
影響を与え	-10.6261
悩	-10.6261
刺	-10.6261
▁alternativa	-10.6261
祖母	-10.6261
っぽ	-10.6262
年には	-10.6263
セント	-10.6264
▁altera	-10.6264
したもの	-10.6265
▁perigoso	-10.6266
▁reforma	-10.6266
いると	-10.6267
bit	-10.627
▁passei	-10.6271
▁mostram	-10.6272
▁prever	-10.6274
するような	-10.6274
dra	-10.6275
▁bomba	-10.6277
▁皆が	-10.6281
▁植物	-10.6294
報告	-10.6294
▁abelhas	-10.6295
恥	-10.6295
▁velha	-10.6295
気候	-10.6296
する事	-10.6298
ことはありません	-10.63
▁assina	-10.6301
▁joga	-10.6303
▁時には	-10.6303
pia	-10.6304
うち	-10.6305
共	-10.6306
経験を	-10.6307
を知る	-10.6307
▁Trata	-10.6309
▁2010	-10.6309
▁Qu	-10.631
doras	-10.6312
を見つける	-10.6325
切れ	-10.6327
油	-10.6327
持続	-10.6328
きっかけ	-10.6328
腸	-10.6328
▁Começa	-10.6328
食糧	-10.6328
マウス	-10.6333
▁repara	-10.6336
▁poderão	-10.6336
ときは	-10.6338
▁nasce	-10.6341
ナン	-10.6343
したとき	-10.6345
ありがとう	-10.6347
“	-10.6347
悪く	-10.6351
▁400	-10.6352
例です	-10.6352
置いて	-10.6354
地上	-10.6355
▁ponte	-10.6357
dou	-10.6358
▁afasta	-10.6359
▁ilha	-10.6361
算	-10.6361
先に	-10.6361
アフガニスタン	-10.6362
薄	-10.6362
▁perturba	-10.6362
カナダ	-10.6362
▁ビジネス	-10.6363
か月	-10.6364
単	-10.6365
のようです	-10.6369
付いて	-10.6372
▁deveria	-10.6373
体が	-10.6373
描き	-10.6374
豊か	-10.6378
基本	-10.6379
▁どこに	-10.638
視覚	-10.6382
▁investi	-10.6387
▁gasta	-10.6393
充	-10.6395
紛争	-10.6395
▁curto	-10.6395
▁clima	-10.6395
無駄	-10.6395
▁imensa	-10.6396
予定	-10.6396
ウェブ	-10.6398
▁perde	-10.6398
▁missão	-10.6398
あるのです	-10.6399
途	-10.6399
▁espi	-10.64
続く	-10.64
ちゃん	-10.6404
▁pen	-10.6407
作用	-10.6408
▁既に	-10.6408
▁sonhos	-10.641
▁anima	-10.6411
90	-10.6412
▁若い	-10.6414
jar	-10.6418
薬を	-10.6419
超え	-10.6419
▁enf	-10.642
▁complicado	-10.6424
ルド	-10.6425
なっています	-10.6427
伴	-10.6428
編	-10.6429
ステージ	-10.6429
制限	-10.643
▁Lu	-10.6431
ゼロ	-10.6436
▁identificar	-10.6439
りません	-10.644
▁0	-10.644
が見えます	-10.6442
についてです	-10.6447
考えている	-10.6448
うつ	-10.6448
▁monte	-10.6448
etro	-10.6449
の高い	-10.6451
▁desafios	-10.6452
▁Oh	-10.6453
▁fé	-10.6453
両親	-10.6454
ング	-10.6454
▁両	-10.6454
▁popular	-10.6457
ff	-10.646
聖	-10.6462
▁Onde	-10.6463
▁básica	-10.6463
▁pintura	-10.6463
真ん中	-10.6463
▁internacional	-10.6463
▁quadro	-10.6464
のせいで	-10.6472
場所を	-10.6474
車を	-10.6478
den	-10.648
初め	-10.6481
エネルギーを	-10.6485
陸	-10.6489
▁貧困	-10.6491
▁vídeos	-10.6492
▁他にも	-10.6493
するのが	-10.6494
作家	-10.6495
▁consumi	-10.6495
ブラジル	-10.6497
▁imaginem	-10.6497
▁reserva	-10.6497
▁movimentos	-10.6497
解釈	-10.6497
▁150	-10.6498
楽しい	-10.6499
落とし	-10.6501
を付け	-10.6502
全てを	-10.6504
生まれる	-10.6506
経済的	-10.6506
▁obra	-10.651
してくれました	-10.651
団	-10.6512
ローマ	-10.6514
▁provas	-10.6514
信じられない	-10.6515
を理解し	-10.6516
特定の	-10.6516
▁quilómetros	-10.652
ブー	-10.6521
8%	-10.6522
デジタル	-10.6525
もまた	-10.6525
▁すごい	-10.6526
▁primeiras	-10.6529
脂	-10.6531
▁bloque	-10.6531
▁preserva	-10.6531
ストーリー	-10.6531
スピード	-10.6531
勤	-10.6531
▁frio	-10.6534
立って	-10.6535
んですが	-10.6537
言えば	-10.6538
▁equipamento	-10.6541
ヌ	-10.6544
▁私はこの	-10.6544
▁aproxima	-10.6544
たいのです	-10.6545
ミー	-10.6545
どういう	-10.6545
隠れ	-10.6545
型の	-10.6547
に必要な	-10.6549
心に	-10.6553
上げる	-10.6553
indo	-10.6555
▁viu	-10.6558
映	-10.6562
▁ruas	-10.6564
▁dito	-10.6565
▁ちょうど	-10.6565
▁amiga	-10.6566
▁comuns	-10.6567
難しく	-10.6568
▁situações	-10.6568
はあります	-10.6568
▁praticamente	-10.657
ular	-10.6578
多くの人	-10.6578
薬物	-10.6582
撮	-10.6586
地下	-10.6587
▁político	-10.6588
番目の	-10.659
▁formar	-10.6592
始	-10.6594
岸	-10.6597
Vídeo	-10.66
把握	-10.66
否定	-10.66
広告	-10.66
必ず	-10.66
血液	-10.66
▁demais	-10.6602
パス	-10.6604
旅行	-10.6605
スペース	-10.6606
差別	-10.6608
下げ	-10.6609
言っている	-10.6611
おい	-10.6611
死んで	-10.6612
米国	-10.6613
突き	-10.6614
芸術家	-10.6615
されていました	-10.6616
聞かれ	-10.6619
▁façam	-10.6619
▁estrela	-10.6623
右	-10.6631
▁巨大な	-10.6633
和	-10.6633
はまだ	-10.6633
まさに	-10.6634
いずれ	-10.6634
規制	-10.6635
結合	-10.6637
vio	-10.6637
ído	-10.6645
英国	-10.6645
る事	-10.6645
▁desce	-10.6645
しませんでした	-10.665
ませ	-10.6653
▁neuro	-10.6653
を得	-10.6657
ようになった	-10.666
▁viajar	-10.6662
▁continuam	-10.6663
dig	-10.6664
特定	-10.6667
舞	-10.6668
刻	-10.6668
熟	-10.6669
自閉症	-10.6669
▁crença	-10.6669
運営	-10.6669
▁quinta	-10.6669
▁結局	-10.6671
機器	-10.6673
温度	-10.6674
▁desenvolve	-10.6675
おき	-10.6675
ザー	-10.6679
ブリ	-10.6681
指導者	-10.6682
分かりました	-10.6683
ビン	-10.669
▁faça	-10.6692
▁民主主義	-10.6696
▁それらの	-10.6699
▁motiva	-10.6701
▁sentimentos	-10.6703
補	-10.6703
エジプト	-10.6704
▁artificial	-10.6704
膨大な	-10.6704
▁carrega	-10.6704
▁chefe	-10.6704
クター	-10.6705
▁conversas	-10.6705
所に	-10.6706
に入って	-10.6708
後で	-10.6708
本当	-10.6712
食べる	-10.6713
という意味	-10.6717
▁alcançar	-10.6719
覚	-10.672
短い	-10.6721
ib	-10.6722
一方で	-10.6725
予	-10.6727
▁自分自身	-10.6727
住民	-10.6728
面で	-10.6729
▁この問題	-10.6732
pel	-10.6732
▁custos	-10.6735
しまう	-10.6736
300	-10.6736
故郷	-10.6738
▁Segundo	-10.6738
舞台	-10.6739
込んだ	-10.6739
描く	-10.6741
▁viola	-10.6742
▁2008	-10.6743
ジョー	-10.6743
マイクロ	-10.6746
かす	-10.6746
全体の	-10.6748
議会	-10.6753
活用	-10.6754
▁falamos	-10.6756
政府は	-10.6756
協	-10.676
▁それも	-10.6766
以来	-10.6772
級	-10.6773
▁influencia	-10.6773
▁criou	-10.6773
▁perguntei	-10.6773
▁baleia	-10.6773
terapia	-10.6774
キュ	-10.6777
▁医師	-10.6778
何年も	-10.6779
モノ	-10.678
stri	-10.6781
同じように	-10.6789
立つ	-10.679
する必要があります	-10.6791
豊かな	-10.6792
▁capacidades	-10.6793
▁自分たちの	-10.6797
▁cientista	-10.68
科学的	-10.6803
もう少し	-10.6805
のひとつ	-10.6806
待って	-10.6807
▁自らの	-10.6808
沢山	-10.6808
バクテリア	-10.6808
金融	-10.6809
細胞が	-10.6811
回り	-10.6812
治療法	-10.6815
ía	-10.6816
ドー	-10.682
ていたのです	-10.6821
▁50%	-10.6821
であっても	-10.6822
▁entrada	-10.6829
アメリカで	-10.6829
▁どうすれば	-10.6833
できれば	-10.6836
▁terá	-10.6836
▁tanta	-10.6837
一歩	-10.6837
投げ	-10.6839
規	-10.6843
▁exercício	-10.6844
ご存じ	-10.6844
恐竜	-10.6844
▁flutua	-10.6844
▁fazendo	-10.6844
気づいた	-10.6844
▁malária	-10.6844
対策	-10.6844
▁YouTube	-10.6845
mat	-10.6847
なくなります	-10.6848
▁falam	-10.6849
▁realizar	-10.6854
▁一方で	-10.6855
flu	-10.6856
passe	-10.686
▁descobriu	-10.6865
▁concentra	-10.6866
するよう	-10.6872
and	-10.6873
▁devíamos	-10.6875
動画	-10.6878
糖	-10.6879
プラスチック	-10.6879
軸	-10.6879
▁dirigi	-10.6879
▁extraordinária	-10.6879
▁gravidade	-10.6879
▁provável	-10.6879
▁moderno	-10.6879
osa	-10.6879
▁comercial	-10.688
タイム	-10.6881
作り上げ	-10.6881
約束	-10.6881
代表	-10.6882
▁areia	-10.6882
ブランド	-10.6883
巨大	-10.6883
メス	-10.6884
ko	-10.6889
の形	-10.6892
▁ultrapassar	-10.6892
広い	-10.6893
頂	-10.6894
ナイ	-10.6898
場所です	-10.6902
▁本当の	-10.6907
版	-10.6908
だったら	-10.6912
厳	-10.6914
▁explora	-10.6914
婦	-10.6914
ポイント	-10.6915
▁fluxo	-10.6915
▁jantar	-10.6915
▁dezenas	-10.6915
xo	-10.6915
してくれ	-10.6916
したものです	-10.6918
▁gerações	-10.692
▁現代	-10.6923
出てくる	-10.6926
を守る	-10.6929
早	-10.6933
は全て	-10.6935
▁engenharia	-10.6938
取って	-10.694
州の	-10.6945
ダメ	-10.6946
貧	-10.6949
〜	-10.695
猫	-10.695
▁cerebral	-10.695
▁vós	-10.695
▁pertence	-10.695
ぐらい	-10.695
詳細	-10.695
▁entrevista	-10.695
連絡	-10.695
▁haja	-10.695
才能	-10.695
▁gosta	-10.6951
▁conheci	-10.6953
人や	-10.6956
▁imagina	-10.6958
覚え	-10.6959
can	-10.6962
▁comunicar	-10.6963
▁きっと	-10.6965
cionais	-10.6971
ないか	-10.6973
男性が	-10.6975
作られた	-10.6977
▁inclui	-10.6979
▁再び	-10.6983
▁saudáveis	-10.6986
お気に入り	-10.6986
▁もしくは	-10.6987
沢山の	-10.6987
お見せしましょう	-10.6988
近い	-10.6992
▁普通の	-10.6996
▁notas	-10.6999
闘	-10.7005
▁ここは	-10.7005
るよう	-10.7006
▁costumava	-10.7006
era	-10.7008
望み	-10.7013
農	-10.7015
logia	-10.7017
順	-10.7017
ゴール	-10.7018
影	-10.7021
メキシコ	-10.7022
▁combustível	-10.7022
▁bloco	-10.7022
向かう	-10.7022
読む	-10.7023
▁humanas	-10.7023
わたし	-10.7023
▁sociedades	-10.7029
▁pronto	-10.7029
▁ricos	-10.7033
わかった	-10.7035
▁より多くの	-10.7036
速く	-10.7037
▁Ke	-10.7037
加速	-10.7037
▁recon	-10.704
▁はっきり	-10.7041
リック	-10.7044
▁世界中で	-10.7044
しさ	-10.7045
ことがある	-10.7047
▁最後の	-10.7052
▁paciente	-10.7053
方も	-10.7055
兆	-10.7056
▁junto	-10.7057
▁possíveis	-10.7058
▁regista	-10.7058
▁fogo	-10.7058
現状	-10.7058
▁opções	-10.7058
グラ	-10.7063
常	-10.7064
自分で	-10.7068
に関わる	-10.7068
▁他に	-10.7072
ámo	-10.7073
変化を	-10.7075
発達	-10.7077
▁dizemos	-10.7078
照	-10.7082
情報が	-10.7082
pont	-10.7088
cola	-10.7092
射	-10.7092
警	-10.7093
▁básico	-10.7094
▁positiva	-10.7094
税	-10.7094
▁interpreta	-10.7094
16	-10.7094
▁Sempre	-10.7095
▁Usa	-10.7095
▁nu	-10.7096
男女	-10.7096
▁órgãos	-10.7097
ほ	-10.7097
伝	-10.7098
lé	-10.7102
▁簡単に	-10.7103
▁significativa	-10.7103
by	-10.7103
進み	-10.7108
青い	-10.7111
▁atira	-10.7114
▁ficaram	-10.7116
cioso	-10.7118
見てみましょう	-10.7118
上がって	-10.7118
占め	-10.712
能力を	-10.7126
裁判	-10.7129
常に	-10.7129
誌	-10.713
▁permanente	-10.713
▁responsável	-10.713
皮膚	-10.713
▁rádio	-10.713
編集	-10.7131
見つけ	-10.7131
部分は	-10.7132
▁faria	-10.7133
わけで	-10.7135
▁Antes	-10.7136
▁agir	-10.7137
▁Vai	-10.7138
についても	-10.7139
wi	-10.7141
13	-10.7142
▁ネット	-10.7143
のまま	-10.7144
を開け	-10.7144
▁Foram	-10.7145
700	-10.7146
若い	-10.7147
長い間	-10.7148
▁adoro	-10.7154
キン	-10.7156
者たち	-10.7157
▁salva	-10.7157
巡	-10.7166
▁detrás	-10.7166
スキル	-10.7166
▁destino	-10.7167
始まった	-10.7167
最大	-10.7167
くれました	-10.7168
現地	-10.717
みたいに	-10.7176
▁fascinante	-10.7182
▁termina	-10.7182
▁quisermos	-10.7183
し続け	-10.7183
▁sofrer	-10.7186
することも	-10.719
▁cem	-10.7192
ble	-10.7193
▁erros	-10.7194
ジャー	-10.7198
▁ecossistema	-10.7203
▁sofrimento	-10.7203
アイデンティティ	-10.7203
炎	-10.7203
▁continente	-10.7203
最初	-10.7204
▁opção	-10.7204
の原因	-10.7205
▁dez	-10.7208
▁proteção	-10.7209
tan	-10.721
諸国	-10.721
遅	-10.7211
側面	-10.7212
▁definição	-10.7213
に移	-10.7213
べきです	-10.7214
の間で	-10.7216
起きる	-10.7225
ことにしました	-10.7227
読んで	-10.7231
担	-10.7237
▁projecto	-10.7239
▁museu	-10.724
▁MIT	-10.724
することができ	-10.7242
▁necessidades	-10.7243
向かい	-10.7244
▁ligada	-10.7245
▁Har	-10.7247
国に	-10.7248
▁chamam	-10.7248
任	-10.7248
立ち上げ	-10.7248
大きさ	-10.7249
Bem	-10.7253
見ると	-10.726
終え	-10.7265
をどう	-10.7266
に見える	-10.7272
▁termo	-10.7272
そのまま	-10.7275
見られ	-10.7276
課	-10.7276
▁agricultura	-10.7276
▁pudéssemos	-10.7276
昆虫	-10.7276
▁certos	-10.7282
化する	-10.7283
▁esqui	-10.7287
▁empatia	-10.7287
明らかに	-10.7287
▁mães	-10.7288
日間	-10.7292
考えてみましょう	-10.7294
人気	-10.7297
fina	-10.7297
▁testar	-10.7297
化し	-10.7299
させました	-10.7299
▁identifica	-10.7302
▁estejam	-10.7304
▁engenheiros	-10.7307
世の中	-10.7307
▁noção	-10.7308
続いて	-10.7309
やった	-10.7309
▁fontes	-10.7309
形成	-10.7311
細胞を	-10.7312
▁árabe	-10.7313
スライド	-10.7313
背景	-10.7313
保存	-10.7313
を始めました	-10.7314
▁conferência	-10.7315
ニング	-10.7315
モー	-10.7315
▁próprias	-10.7316
どこに	-10.7319
▁mercados	-10.7322
sol	-10.7326
寄	-10.7327
▁fazerem	-10.7327
▁partido	-10.7328
▁Tom	-10.7331
▁considerar	-10.7331
を生み出し	-10.7332
▁motivo	-10.7333
▁どれだけ	-10.7336
▁警察	-10.7337
guem	-10.7339
読み	-10.734
考えています	-10.734
▁seriam	-10.7342
獲	-10.735
らせる	-10.735
餌	-10.735
▁prazer	-10.735
覚えています	-10.735
血管	-10.7351
▁bolha	-10.7353
▁daquilo	-10.7361
ああ	-10.7364
▁verdadeiramente	-10.7364
お話しします	-10.7364
アナ	-10.7364
▁oferece	-10.7368
度に	-10.737
quer	-10.737
会い	-10.7371
▁Fica	-10.7372
メッセージを	-10.7372
ないからです	-10.7372
皮	-10.7374
▁espalha	-10.7375
体重	-10.7377
▁現代の	-10.7379
▁St	-10.7381
ゆ	-10.7382
を生み出す	-10.7382
麻	-10.7384
水が	-10.7384
推	-10.7386
いただけ	-10.7386
四	-10.7387
鼻	-10.7387
と考えています	-10.7387
検討	-10.7387
▁modifica	-10.7387
展開	-10.7387
交換	-10.7388
▁sente	-10.7388
を作った	-10.7389
▁infl	-10.739
end	-10.7391
▁banho	-10.7391
再び	-10.7392
作れる	-10.7393
史上	-10.7394
下さい	-10.7396
▁lua	-10.7396
▁morreu	-10.7397
コミュニティー	-10.7398
わかって	-10.7404
マイ	-10.7408
▁desenha	-10.7411
座って	-10.7412
▁faziam	-10.7412
ーション	-10.7415
てる	-10.7417
と呼ぶ	-10.7418
▁descrever	-10.7422
▁父は	-10.7422
len	-10.7422
▁ouro	-10.7423
▁ilumina	-10.7425
ホルモン	-10.7425
▁consumo	-10.7425
▁profissionais	-10.7425
▁riqueza	-10.7425
▁Contudo	-10.7425
要求	-10.7425
担当	-10.7425
移植	-10.7426
▁oposto	-10.7427
▁人間は	-10.7428
▁recuperar	-10.7429
生成	-10.7435
▁poucas	-10.7435
▁他の人	-10.7439
すごく	-10.744
どこから	-10.744
▁Queria	-10.7442
点です	-10.7447
れます	-10.7453
▁divertido	-10.7458
▁específica	-10.7462
チンパンジー	-10.7462
▁corrida	-10.7462
乗り越え	-10.7462
▁Reino	-10.7465
黄色	-10.7466
▁construí	-10.7469
ニューヨーク	-10.7469
▁proporciona	-10.7471
いつ	-10.7471
fico	-10.7471
国際	-10.7473
被害者	-10.7473
てしまいました	-10.7478
結び	-10.7479
▁cão	-10.748
折り	-10.7483
fle	-10.7486
▁すなわち	-10.7487
▁tele	-10.7491
創造性	-10.7491
与える	-10.7493
秘	-10.7498
▁tradicional	-10.75
バランス	-10.75
▁vermelha	-10.75
ウェブサイト	-10.75
▁membro	-10.7501
いくら	-10.7502
導入	-10.7502
▁Gu	-10.7504
広く	-10.7509
自動	-10.7514
物事	-10.7518
てくる	-10.7518
ilha	-10.7519
▁nomes	-10.7521
しているのか	-10.7521
耐え	-10.7521
▁permitem	-10.7522
考えると	-10.7523
ということは	-10.7529
漁	-10.7529
▁oceanos	-10.7531
▁experimentar	-10.7532
児	-10.7535
兵	-10.7536
▁línguas	-10.7537
取り入れ	-10.7537
▁comprimento	-10.7537
▁fêmea	-10.7537
▁trouxe	-10.7537
▁óbvio	-10.7537
練習	-10.7538
▁torná	-10.7538
溢れ	-10.7538
ものだと	-10.754
ionar	-10.7542
ほしい	-10.7545
ónico	-10.756
estar	-10.7565
imento	-10.757
採	-10.7573
選び	-10.7575
▁Afeganistão	-10.7575
▁complexidade	-10.7575
圏	-10.7575
削減	-10.7576
音が	-10.7579
身を	-10.7583
▁Pu	-10.7584
▁campos	-10.7586
っていて	-10.7589
▁avança	-10.7594
▁Pre	-10.7595
▁más	-10.7603
ensa	-10.7604
自転車	-10.7613
▁Felizmente	-10.7613
▁matemático	-10.7613
に基づいて	-10.7613
鬱	-10.7613
▁Bi	-10.7615
わからない	-10.7617
最後に	-10.7618
読	-10.7624
渡り	-10.7631
▁construímos	-10.7631
学びました	-10.7635
din	-10.7636
セル	-10.7637
▁estados	-10.7637
置き	-10.7638
殺人	-10.7638
▁基本的に	-10.7638
資	-10.7639
過程で	-10.764
▁Fo	-10.7642
▁desaparecer	-10.7643
私達は	-10.7648
診	-10.7651
粉	-10.7651
アイディア	-10.7651
関わり	-10.7652
▁narrativa	-10.7652
▁distante	-10.7652
▁そういった	-10.7655
支	-10.7655
を起こす	-10.7657
たもの	-10.7658
無料	-10.7662
▁queima	-10.7664
ポリ	-10.7665
に来て	-10.7667
さない	-10.7669
始めて	-10.7669
▁HIV	-10.7674
体は	-10.7674
性的	-10.7679
▁quis	-10.7681
▁cresci	-10.7689
▁batalha	-10.769
▁dimensão	-10.769
▁radical	-10.769
荒	-10.769
起業家	-10.769
輝	-10.769
▁perceção	-10.769
▁むしろ	-10.769
▁ideal	-10.769
意味で	-10.7691
▁relativamente	-10.7692
▁これも	-10.7692
分類	-10.7697
奪	-10.7698
ifi	-10.7699
▁limites	-10.7702
▁Numa	-10.7705
的なもの	-10.7706
▁私自身	-10.7708
▁andava	-10.7711
▁Tive	-10.7717
役割を	-10.7719
他人	-10.772
排出	-10.772
エイ	-10.7721
リス	-10.7721
▁graças	-10.7725
▁obrigada	-10.7727
便	-10.7728
▁branca	-10.7728
▁Apenas	-10.7728
追跡	-10.7729
▁tentativa	-10.7729
▁absolutamente	-10.7731
net	-10.7731
▁descreve	-10.7731
▁もっとも	-10.7734
私達	-10.7738
信じる	-10.774
▁costa	-10.7742
させること	-10.7745
数値	-10.7747
込め	-10.7748
言いたい	-10.7752
▁quiser	-10.7752
▁pan	-10.7753
誰もが	-10.7753
でもある	-10.7755
▁これには	-10.7755
▁confi	-10.7756
plan	-10.776
初の	-10.7764
るようになりました	-10.7766
サンプル	-10.7767
▁armazena	-10.7767
▁Grande	-10.7767
▁afirma	-10.7769
▁construído	-10.7771
整	-10.7772
▁tarefas	-10.7772
に向けて	-10.7773
▁droga	-10.7773
合って	-10.7779
手で	-10.7779
▁detetar	-10.7782
▁deseja	-10.7782
▁agarrar	-10.7787
▁organismos	-10.7788
まった	-10.7792
7%	-10.7793
起こっている	-10.7793
▁chegam	-10.7795
我々	-10.7796
▁orienta	-10.7798
聞きました	-10.7798
▁ある日	-10.78
▁paga	-10.7801
完璧	-10.7804
地元	-10.7805
▁parecido	-10.7806
盛	-10.7806
分解	-10.7807
ロイ	-10.7808
▁triste	-10.7808
▁dificuldade	-10.7812
と思いますが	-10.7814
▁semelhantes	-10.7823
▁clientes	-10.7837
見たこと	-10.7841
脅	-10.7844
オープン	-10.7844
▁secundário	-10.7845
▁surpresa	-10.7845
▁sustentável	-10.7845
しっかり	-10.7845
説得	-10.7846
tória	-10.7847
交流	-10.7848
と言うと	-10.7848
かない	-10.7848
しまった	-10.7854
イス	-10.7856
戻って	-10.7857
▁アフリカの	-10.786
以外の	-10.786
そうだ	-10.7867
▁of	-10.787
カード	-10.7871
年前の	-10.7874
を得て	-10.7877
▁venda	-10.7878
掛け	-10.7881
修	-10.7882
▁たとえ	-10.7882
髪	-10.7884
▁circula	-10.7884
ソフト	-10.7884
弁	-10.7884
素敵な	-10.7884
イラク	-10.7884
▁chuva	-10.7884
によれば	-10.7884
▁americano	-10.7885
▁claramente	-10.789
動作	-10.7892
▁comporta	-10.7893
政府の	-10.7895
▁precisar	-10.7897
▁participar	-10.7901
わせ	-10.7903
▁técnicas	-10.7906
gh	-10.7908
Isto	-10.7915
んでいます	-10.7918
百	-10.7918
激	-10.792
▁bicicleta	-10.7923
▁incríveis	-10.7923
何らかの	-10.7923
▁今度は	-10.7923
容易	-10.7923
▁desloca	-10.7924
▁Passa	-10.7924
▁pista	-10.7925
▁自分に	-10.7926
▁escreve	-10.7928
tran	-10.7932
十分に	-10.7937
技術が	-10.7939
▁átomos	-10.7939
特性	-10.794
るんです	-10.7943
るための	-10.7943
を見てみましょう	-10.7946
▁chamo	-10.7949
IS	-10.795
を取る	-10.7951
なくなった	-10.7953
我	-10.7954
▁pós	-10.7954
Vamos	-10.7959
ッツ	-10.796
ていると	-10.7962
鏡	-10.7962
襲	-10.7962
▁paixão	-10.7962
▁projeta	-10.7962
▁noutra	-10.7963
▁Vão	-10.7972
仕事に	-10.7972
ボー	-10.7977
と私は	-10.7984
つける	-10.7987
▁passaram	-10.7988
▁cultural	-10.7989
カイ	-10.7991
prima	-10.7993
▁competi	-10.7994
に参加し	-10.7995
百万	-10.7998
慣れ	-10.7999
▁火星	-10.8
政府が	-10.8
好奇心	-10.8002
iPhone	-10.8002
▁encoraja	-10.8002
▁micróbios	-10.8002
▁título	-10.8002
成し遂げ	-10.8002
▁lembro	-10.8002
▁discurso	-10.8002
メンバー	-10.8003
▁minuto	-10.8011
▁sítios	-10.8012
ということを	-10.8012
▁terço	-10.8012
しろ	-10.8013
olu	-10.8013
たくさんの	-10.8018
を覚え	-10.8019
▁35	-10.8021
missão	-10.8023
▁Im	-10.8023
アメリカの	-10.8025
卒業	-10.8025
▁olharem	-10.8027
買い	-10.8027
▁concorda	-10.8033
大規模な	-10.8034
ly	-10.8036
数え	-10.8036
電力	-10.8038
forma	-10.8039
▁flores	-10.804
▁exército	-10.8041
▁telemóveis	-10.8041
▁magia	-10.8041
批判	-10.8041
▁diminui	-10.8042
次第	-10.8042
▁Col	-10.8044
▁Ru	-10.8044
▁compreende	-10.8044
▁vítimas	-10.8046
ショ	-10.8047
▁domina	-10.8049
真っ	-10.8052
▁古代	-10.8053
▁reconhece	-10.8055
chu	-10.8055
無限	-10.8056
▁conhece	-10.8057
止	-10.8061
▁original	-10.8062
▁それまで	-10.8062
ないので	-10.8062
▁criaturas	-10.8068
詰め	-10.8075
策	-10.8078
▁existência	-10.8081
かも知れません	-10.8081
しばらく	-10.8081
GPS	-10.8081
▁barreira	-10.8081
どれくらい	-10.8082
▁talento	-10.8083
独立	-10.8083
▁Nesta	-10.8084
感情を	-10.8084
一連の	-10.8085
こんな感じ	-10.8092
農家	-10.8093
自由に	-10.8095
▁atravessar	-10.8096
を受けました	-10.8098
▁tivermos	-10.8099
▁levanta	-10.8101
こんなこと	-10.8102
orden	-10.8103
し始め	-10.8104
構築	-10.8106
▁contribui	-10.8107
▁perfeita	-10.8114
▁nave	-10.8114
▁voto	-10.8116
▁carvão	-10.8121
▁contém	-10.8121
▁criámos	-10.8121
▁infância	-10.8121
テーブル	-10.8121
▁Espero	-10.8121
予防	-10.8122
調整	-10.8122
イスラム	-10.8123
野生	-10.8125
技術者	-10.8127
▁insetos	-10.8128
bel	-10.8133
▁Unido	-10.8133
▁fornece	-10.8134
▁costum	-10.8139
ころ	-10.814
かかります	-10.814
労働者	-10.8142
起こります	-10.8146
せば	-10.8146
▁daí	-10.8147
正義	-10.8154
▁transporta	-10.8158
▁mantém	-10.8161
▁sobrevivência	-10.8161
にもかかわらず	-10.8161
単位	-10.8162
▁bater	-10.8162
収集	-10.8162
チェック	-10.8163
万人の	-10.8166
int	-10.8168
▁Sei	-10.817
を示しています	-10.8172
放出	-10.8173
可能性が	-10.8173
口に	-10.8175
振	-10.8176
▁誰でも	-10.8176
描いて	-10.8177
なお	-10.8179
▁paredes	-10.818
▁apareceu	-10.8183
ごと	-10.8183
も同じ	-10.8184
▁fal	-10.819
深刻な	-10.8195
認	-10.8196
▁母は	-10.8196
排	-10.8196
知的	-10.8198
ねばなりません	-10.8202
▁bonito	-10.8202
▁Lembro	-10.8202
改革	-10.8202
▁Fiquei	-10.8202
▁percurso	-10.8202
量を	-10.8203
大抵	-10.8203
南極	-10.8203
価値観	-10.8205
nso	-10.8206
mba	-10.8216
性別	-10.8216
扱う	-10.8218
▁nação	-10.822
▁participa	-10.8222
▁foca	-10.8224
仕事は	-10.8225
引っ	-10.8225
見ている	-10.8227
▁trabalhado	-10.823
▁usados	-10.823
ソー	-10.8233
▁conseguirmos	-10.8235
被	-10.8242
凍	-10.8242
雲	-10.8242
なくてはなりません	-10.8242
▁bonita	-10.8242
▁existia	-10.8242
▁conclusão	-10.8243
設立	-10.8243
nica	-10.8244
飛	-10.8245
▁corte	-10.8245
ブルー	-10.8246
チン	-10.825
立た	-10.8251
▁aplicação	-10.8253
サメ	-10.8253
歩く	-10.8254
替え	-10.8256
ph	-10.8256
が出来	-10.8256
液	-10.8265
フリー	-10.8267
izadas	-10.8272
けて	-10.8273
tive	-10.8274
レット	-10.8278
ben	-10.8281
40%	-10.8281
▁Fu	-10.8281
祖父	-10.8282
▁algures	-10.8283
▁cardíaco	-10.8283
▁quantas	-10.8283
報酬	-10.8283
望遠鏡	-10.8283
祖先	-10.8283
▁madeira	-10.8284
▁páginas	-10.8284
ガラス	-10.8287
▁Diz	-10.8289
dy	-10.829
▁reuni	-10.8291
▁caro	-10.8291
群れ	-10.8293
自殺	-10.8293
化した	-10.8295
▁miúdo	-10.8297
▁norma	-10.8297
▁especialistas	-10.8297
ったこと	-10.8298
液体	-10.8299
していたのです	-10.8301
影響を	-10.8302
quad	-10.8304
▁montanhas	-10.8306
como	-10.8309
働	-10.8312
針	-10.8322
営	-10.8323
賛	-10.8323
コーヒー	-10.8324
▁médio	-10.8324
▁escuro	-10.8324
ブラックホール	-10.8324
苦しみ	-10.8324
▁deixou	-10.8324
ワイ	-10.8325
▁diretor	-10.8326
▁surge	-10.8328
質量	-10.833
ッジ	-10.8331
っち	-10.8333
ナノ	-10.8336
▁requer	-10.8336
▁conduzir	-10.8341
▁arre	-10.8343
最悪の	-10.8344
言っています	-10.8345
他者	-10.8345
西洋	-10.8349
関	-10.835
▁terão	-10.835
運命	-10.8351
▁navio	-10.8351
▁benefícios	-10.8355
絶対	-10.8356
緑	-10.8358
▁amar	-10.8358
▁líder	-10.8359
▁vivos	-10.8361
ício	-10.8364
▁XX	-10.8364
抑え	-10.8364
▁classifica	-10.8365
▁florestas	-10.8365
▁famoso	-10.8365
メント	-10.8365
▁apoia	-10.8366
一般的な	-10.8368
の流れ	-10.837
トリック	-10.837
rosa	-10.837
▁Sh	-10.8371
▁TV	-10.8371
avam	-10.8371
▁encontrámos	-10.8372
▁simula	-10.8374
▁galáxias	-10.8374
やっと	-10.8376
上がる	-10.8376
6%	-10.8383
怒	-10.8386
年から	-10.8387
▁というのも	-10.8388
長期	-10.8389
▁そしてこの	-10.8396
bin	-10.8398
るため	-10.8399
プリン	-10.84
▁Pensei	-10.8406
▁cálculo	-10.8406
▁epidemia	-10.8406
▁hormona	-10.8406
▁recompensa	-10.8406
販売	-10.8406
▁barato	-10.8406
▁menina	-10.8406
email	-10.8407
トラック	-10.8408
▁investir	-10.8409
幹細胞	-10.8413
ひとり	-10.8413
▁exige	-10.8413
セット	-10.8415
▁envolvido	-10.8415
▁gastar	-10.8417
戻す	-10.8417
▁aspetos	-10.8418
▁いや	-10.8419
▁reparar	-10.8424
発見した	-10.8426
育った	-10.8427
作り出す	-10.8428
▁criativo	-10.8428
人権	-10.8428
organiza	-10.8432
PC	-10.8434
▁teriam	-10.8436
▁dividi	-10.8441
▁habitu	-10.8446
▁conto	-10.8446
旗	-10.8447
湾	-10.8447
縁	-10.8447
▁argumento	-10.8447
▁resistência	-10.8447
▁toneladas	-10.8447
衝撃	-10.8447
漫画	-10.8447
たびに	-10.8448
寄付	-10.8448
左右	-10.845
に行った	-10.8451
嫌い	-10.8454
▁constantemente	-10.8454
あなたは	-10.8458
が多い	-10.8463
主義者	-10.8464
▁onda	-10.847
▁aponta	-10.847
70%	-10.8471
言われました	-10.8471
分野で	-10.8472
▁そのうち	-10.8475
AI	-10.8476
▁Pelo	-10.848
かかり	-10.848
▁possibilidades	-10.848
似た	-10.8481
つつある	-10.8482
▁fil	-10.8485
太	-10.8488
糸	-10.8489
▁disponível	-10.8489
▁conselho	-10.8489
▁figura	-10.8489
禁止	-10.8489
▁deserto	-10.8489
書かれてい	-10.849
直感	-10.8494
contro	-10.8495
▁brancos	-10.8495
一致	-10.8495
を迎え	-10.8501
▁viaja	-10.8501
レベルで	-10.8504
▁vacina	-10.8506
▁acreditam	-10.8507
つつ	-10.8507
♪	-10.8512
▁ficamos	-10.8518
tividade	-10.8523
悲	-10.8524
出され	-10.8527
亡	-10.8528
いるのは	-10.8529
歴	-10.853
罰	-10.853
いろんな	-10.853
▁Japão	-10.853
▁financeiro	-10.853
▁positivo	-10.853
▁silêncio	-10.853
予算	-10.8531
恋愛	-10.8532
▁lição	-10.8532
化学物質	-10.8532
▁distribuição	-10.8534
▁ouviram	-10.8535
異常	-10.8536
▁apoiar	-10.8536
▁concentrar	-10.8536
ことになる	-10.854
の半分	-10.8542
っているのです	-10.8545
付ける	-10.8545
ケア	-10.8546
てくれました	-10.8547
こうと	-10.8547
▁técnica	-10.8548
▁indivíduo	-10.8549
▁colega	-10.8549
遊	-10.855
▁montanha	-10.855
▁oferecer	-10.8553
方向に	-10.8553
▁perceb	-10.8554
いるか	-10.8558
idas	-10.8561
続	-10.8561
▁propor	-10.8567
区	-10.8568
吸	-10.8568
司	-10.8569
序	-10.8572
▁cumpri	-10.8572
▁infraestrutura	-10.8572
▁とにかく	-10.8572
▁Houve	-10.8572
急速に	-10.8572
▁Fizemos	-10.8573
abrigo	-10.8575
感じた	-10.8576
▁2009	-10.8577
進行	-10.8578
してみましょう	-10.8578
完全な	-10.858
▁surgir	-10.858
っぱ	-10.858
安全な	-10.8588
ことなのです	-10.859
3%	-10.8591
大好き	-10.8592
▁gerar	-10.8594
改	-10.8599
▁cuidado	-10.86
最も重要な	-10.8602
んですよ	-10.8606
leg	-10.8608
誕生	-10.8609
生物学的	-10.8613
▁estimula	-10.8614
ジャーナリスト	-10.8614
堂	-10.8614
袋	-10.8614
▁acabei	-10.8614
▁admira	-10.8614
恒星	-10.8614
▁liderança	-10.8615
▁sintomas	-10.8616
▁cento	-10.8616
知らせ	-10.8617
学んで	-10.8621
愛する	-10.8622
▁cresce	-10.8624
ticamente	-10.8625
▁obriga	-10.8627
方法です	-10.8628
Ok	-10.8629
どこで	-10.863
▁geralmente	-10.863
クラス	-10.8634
▁数年前	-10.8636
▁poderíamos	-10.8637
入って	-10.8638
開き	-10.8641
▁anterior	-10.8643
▁sustenta	-10.8646
▁Ali	-10.8647
食物	-10.8648
アフリカの	-10.865
と思って	-10.8653
やってみ	-10.8656
▁escrevi	-10.8656
▁treino	-10.8656
基盤	-10.8656
関わって	-10.8657
しなければ	-10.8658
▁luzes	-10.8658
▁cheguei	-10.8659
する時	-10.866
だということ	-10.8661
▁prote	-10.8661
しかありません	-10.8661
つつあります	-10.8664
▁fatores	-10.8664
log	-10.8665
400	-10.8672
▁belo	-10.8673
巻き	-10.8675
建築家	-10.8677
願い	-10.8677
一方	-10.8688
イギリス	-10.8689
」「	-10.8694
▁decidimos	-10.8695
場面	-10.8695
を続け	-10.8697
らしい	-10.8698
世代の	-10.8699
▁absorv	-10.8699
▁símbolo	-10.8699
洞窟	-10.8699
▁York	-10.8699
アラブ	-10.8699
▁David	-10.8699
相当	-10.87
呼	-10.8701
感じました	-10.8702
▁quê	-10.8702
gay	-10.8705
▁perfeitamente	-10.8706
に乗って	-10.8709
頭の中	-10.871
イラン	-10.8711
マーク	-10.8711
▁tiverem	-10.8717
同意	-10.8718
構	-10.8718
▁Descobri	-10.8724
部門	-10.8725
本物	-10.8732
▁constante	-10.8734
当然	-10.8735
なくなりました	-10.8735
感じます	-10.8736
CD	-10.874
略	-10.874
参	-10.8741
▁Alguém	-10.8741
▁diagnóstico	-10.8741
しばしば	-10.8741
オーストラリア	-10.8741
▁administra	-10.8741
▁escura	-10.8741
▁alegria	-10.8741
リズム	-10.8741
規則	-10.8741
▁Nessa	-10.8741
▁comparação	-10.8741
▁escuta	-10.8742
接続	-10.8742
あるもの	-10.8742
▁disco	-10.8743
▁fixe	-10.8744
▁autoridade	-10.8745
▁coragem	-10.8745
▁mortos	-10.8746
活性化	-10.8748
世紀に	-10.8749
▁perguntou	-10.8749
子供を	-10.875
uais	-10.8751
業者	-10.8752
▁responde	-10.8754
linha	-10.8757
▁preocupar	-10.8758
▁restaurante	-10.8764
正常	-10.8768
頭を	-10.8772
クレ	-10.8775
長年	-10.8782
動機	-10.8782
▁fugir	-10.8782
爆	-10.8782
▁alma	-10.8783
▁financeira	-10.8784
▁ilustra	-10.8784
▁desafia	-10.8784
習慣	-10.8784
武器	-10.8784
は全く	-10.8784
▁ganho	-10.8785
未知	-10.8786
サンゴ	-10.8787
▁experimenta	-10.879
quem	-10.879
▁San	-10.879
aranha	-10.879
絶対に	-10.8795
▁graus	-10.8796
Esta	-10.88
▁fizer	-10.8807
▁inspirado	-10.8809
やっている	-10.881
▁Gra	-10.8823
つ目	-10.8823
呼んで	-10.8823
たかったのです	-10.8824
tária	-10.8825
仮	-10.8825
閉	-10.8825
feito	-10.8826
▁interagir	-10.8826
▁adolescentes	-10.8827
▁fundamentais	-10.8827
▁igualdade	-10.8827
▁quaisquer	-10.8828
▁Queremos	-10.8833
▁retira	-10.8834
消費者	-10.8834
てきて	-10.8836
が見え	-10.8836
▁diziam	-10.8839
▁より良い	-10.8839
てみましょう	-10.8844
ntou	-10.8845
▁fila	-10.8846
変わりました	-10.8848
しかない	-10.8848
▁sentar	-10.8852
後ろ	-10.8856
▁今年	-10.8856
▁Paul	-10.8856
ンズ	-10.8859
トム	-10.8861
抗生物質	-10.887
▁agricultores	-10.8872
体制	-10.8873
▁falsa	-10.8875
悲劇	-10.8876
その通り	-10.8877
reg	-10.8878
ネス	-10.8881
人間関係	-10.8881
ではないと	-10.8882
メン	-10.8883
似	-10.8884
大変な	-10.8885
ang	-10.8885
ていること	-10.8887
az	-10.8893
議	-10.8895
が増え	-10.8897
するのを	-10.89
▁rato	-10.89
物理	-10.8903
果	-10.8905
▁aceita	-10.891
困	-10.8912
の下に	-10.8913
▁sujeito	-10.8913
▁variedade	-10.8913
▁Aquele	-10.8913
▁eleições	-10.8913
エンジン	-10.8914
楽しみ	-10.8914
▁昨年	-10.8914
インフラ	-10.8914
▁Além	-10.8915
ペン	-10.8917
パワー	-10.8919
を探す	-10.892
タル	-10.892
愛情	-10.8921
分かっています	-10.8921
dição	-10.8921
になること	-10.8921
みると	-10.8923
porque	-10.8923
存在し	-10.8923
どうか	-10.8926
ものだ	-10.8929
の姿	-10.893
指示	-10.8932
遠い	-10.8933
ショー	-10.8934
々と	-10.8935
▁propriedade	-10.8938
本当の	-10.8941
▁começo	-10.8943
ていきます	-10.8944
るんだ	-10.8946
を抱え	-10.8948
▁ataques	-10.895
汚	-10.8956
章	-10.8956
juntamente	-10.8957
▁advogado	-10.8957
▁individuais	-10.8957
暮らす	-10.8957
▁diversas	-10.8957
▁exposição	-10.8959
▁Cria	-10.8959
▁algoritmos	-10.896
▁lago	-10.8962
▁físicos	-10.8966
シンプルな	-10.8967
▁Fiz	-10.8972
共通の	-10.8972
▁estiverem	-10.8973
見つめ	-10.8976
海の	-10.8977
▁そこで私は	-10.8981
生息	-10.8982
っていません	-10.8982
単に	-10.8987
点で	-10.8988
使われる	-10.8995
▁africanos	-10.8996
▁retirar	-10.8996
▁ある種の	-10.8997
▁barra	-10.8998
でしょ	-10.8998
印	-10.9
▁disponíveis	-10.9
▁truque	-10.9
エンジニア	-10.9
株	-10.9
民族	-10.9001
▁elefante	-10.9001
▁estranhos	-10.9003
▁まあ	-10.9003
▁antigos	-10.9007
張り	-10.9007
されていた	-10.901
ことになりました	-10.9012
ましい	-10.9013
▁それらは	-10.9014
▁formos	-10.9021
▁Du	-10.9022
を提供し	-10.9022
cep	-10.9024
知性	-10.9025
男性の	-10.9026
ジン	-10.9026
さま	-10.9027
最後	-10.9028
▁II	-10.9031
eza	-10.9032
ótico	-10.9035
ya	-10.9038
▁recebe	-10.9039
▁当時の	-10.9041
インタビュー	-10.9044
▁clínica	-10.9044
肩	-10.9044
almoço	-10.9044
必ずしも	-10.9044
pode	-10.9045
▁festa	-10.9045
ものではありません	-10.9045
再現	-10.9046
分裂	-10.9046
と同様に	-10.9047
検出	-10.9047
árias	-10.9051
▁22	-10.9054
ひと	-10.9056
直す	-10.9072
描かれ	-10.9076
▁entusiasma	-10.9077
▁essencial	-10.9081
を発見し	-10.9085
▁ocorrer	-10.9085
侵	-10.9086
損	-10.9087
政	-10.9087
益	-10.9088
website	-10.9088
▁corresponde	-10.9088
イノベーション	-10.9088
▁Brasil	-10.9088
しまいました	-10.9089
吸収	-10.9089
の仕方	-10.9089
金属	-10.9091
と考える	-10.9091
▁alterações	-10.9094
想像力	-10.9094
であることを	-10.9095
versa	-10.9096
警察	-10.91
▁prestar	-10.91
▁servir	-10.9101
▁formigas	-10.9101
こういう	-10.9102
ificação	-10.9102
のようなものです	-10.9103
そういう	-10.9103
▁particularmente	-10.9104
gência	-10.9105
入れる	-10.9106
事例	-10.9113
▁medicamento	-10.9116
えます	-10.9118
▁その日	-10.9118
大学で	-10.9122
留	-10.9123
せます	-10.9124
必要がありました	-10.9126
を手に入れ	-10.9127
▁poderiam	-10.9128
生まれました	-10.9129
の前で	-10.913
屈	-10.9132
廃	-10.9132
厚	-10.9133
gráfica	-10.9133
▁biblioteca	-10.9133
▁núcleo	-10.9133
図書館	-10.9133
過ごす	-10.9133
▁prémio	-10.9133
印刷	-10.9133
▁espelho	-10.9133
▁gripe	-10.9133
▁ótima	-10.9133
▁condena	-10.9133
始まる	-10.9133
役立つ	-10.9134
▁causar	-10.9137
科学の	-10.9137
▁2007	-10.9138
▁sabiam	-10.9138
する必要	-10.914
焼	-10.914
を求める	-10.914
私達の	-10.9141
が高い	-10.9149
regula	-10.9149
▁face	-10.9152
rap	-10.9157
わず	-10.9157
▁僕が	-10.9158
されていない	-10.9162
ウス	-10.9165
▁そんなこと	-10.9166
▁envolver	-10.9167
いくつ	-10.9168
シャー	-10.9168
▁costas	-10.9172
▁vizinhos	-10.9175
▁crítico	-10.9177
▁equivalente	-10.9177
▁impressão	-10.9177
▁permanece	-10.9177
イスラエル	-10.9177
きちんと	-10.9177
▁dizendo	-10.9177
▁aprecia	-10.9177
を含む	-10.9177
勝利	-10.9178
小説	-10.9179
▁pessoais	-10.9179
▁Eis	-10.918
▁reunião	-10.9181
▁lançar	-10.9181
▁teremos	-10.9181
たくさんあります	-10.9181
▁destruí	-10.9182
発電	-10.9182
社会に	-10.9183
分かり	-10.9184
4%	-10.9185
がちです	-10.9186
たんです	-10.9189
▁実際は	-10.9196
▁vozes	-10.9197
年後に	-10.9198
出します	-10.9198
▁tenhamos	-10.92
▁Un	-10.9202
率は	-10.9202
時々	-10.9205
▁libertar	-10.9206
分間	-10.9212
▁moda	-10.9214
処	-10.9214
説明する	-10.9214
リオ	-10.9219
話した	-10.9221
▁descobriram	-10.9221
雪	-10.9222
▁Washington	-10.9222
▁arquiteto	-10.9222
▁pássaro	-10.9222
スケール	-10.9222
弁護士	-10.9222
▁desastre	-10.9222
標準	-10.9222
重大な	-10.9222
▁conquista	-10.9222
印象	-10.9222
▁deixem	-10.9222
▁perdido	-10.9222
作成	-10.9224
眺め	-10.9224
▁colocá	-10.9228
物理学	-10.9229
について話し	-10.9229
▁そうすれば	-10.9232
続けて	-10.9232
▁preocupado	-10.9235
のではないか	-10.9235
光の	-10.9238
思わ	-10.924
まったく	-10.9247
▁Wal	-10.9251
▁limite	-10.9253
▁altos	-10.9257
歳の時	-10.9258
▁atua	-10.926
を用いて	-10.9261
誰かが	-10.9263
eficiente	-10.9266
▁equilíbrio	-10.9267
▁obstáculo	-10.9267
▁profissional	-10.9267
▁documento	-10.9267
特許	-10.9267
損傷	-10.9267
の仕組み	-10.9268
▁desculpa	-10.9268
ブロック	-10.9268
の中でも	-10.9269
踏み	-10.9271
▁pudessem	-10.9272
地面	-10.9272
▁皆さんも	-10.9276
▁eliminar	-10.9278
ボン	-10.9278
ジョージ	-10.9279
脳に	-10.928
▁larga	-10.9281
まい	-10.9282
24	-10.9284
fen	-10.9284
▁senhora	-10.9288
んでしょう	-10.9291
出せ	-10.9292
▁Deixem	-10.9293
になったのです	-10.9296
▁levantar	-10.9296
▁buscar	-10.9297
▁notícia	-10.9298
▁pobre	-10.93
▁irmãos	-10.9302
に触れ	-10.9304
最終	-10.9309
▁manipula	-10.9312
▁influência	-10.9312
ようやく	-10.9312
▁agarra	-10.9312
展示	-10.9312
並べ	-10.9313
▁vidro	-10.9314
という考え	-10.9315
海岸	-10.9315
ところは	-10.9316
▁mostrou	-10.9316
細胞は	-10.9316
▁tentamos	-10.9316
ってくる	-10.9316
一生	-10.9316
マリ	-10.9321
▁passos	-10.9322
▁noutros	-10.9323
▁percebemos	-10.9327
ley	-10.9329
彼が	-10.933
ブレ	-10.9332
番目	-10.9334
▁そしてその	-10.9335
数日	-10.9341
彼らが	-10.9342
Car	-10.9343
ことはできません	-10.9344
の話です	-10.9347
状況に	-10.9348
しまいます	-10.9351
ワシントン	-10.9357
近づいて	-10.9357
▁desporto	-10.9357
▁iguais	-10.9357
mental	-10.9357
許可	-10.9358
統合	-10.9358
自宅	-10.9358
これまで	-10.936
▁pilha	-10.9362
▁tubo	-10.9363
いなかった	-10.9367
▁hipóteses	-10.937
例外	-10.9372
▁cortar	-10.9372
するとき	-10.9374
▁privado	-10.9375
▁criam	-10.9379
▁Ter	-10.938
▁limpa	-10.9382
▁regular	-10.9388
▁clara	-10.9397
訴	-10.9397
ょ	-10.9401
ぁ	-10.9402
▁categoria	-10.9402
▁industrial	-10.9402
▁mistério	-10.9402
貸	-10.9402
以降	-10.9402
爆弾	-10.9403
仮説	-10.9403
▁やがて	-10.9403
▁moeda	-10.9403
焦点	-10.9403
▁exame	-10.9404
▁merece	-10.9404
止ま	-10.9405
採用	-10.9405
優先	-10.9406
安心	-10.9406
▁estação	-10.9406
▁desenvolvido	-10.9407
ケット	-10.9407
伝える	-10.9408
っていく	-10.9409
▁princípios	-10.9414
子供の頃	-10.9414
ドラ	-10.942
動きを	-10.942
暗い	-10.9422
陰	-10.9431
▁Pensa	-10.9432
的です	-10.9433
▁patente	-10.9437
▁vira	-10.9437
▁criativa	-10.9439
快	-10.9441
されない	-10.9441
象	-10.9441
比べ	-10.9444
インフルエンザ	-10.9448
▁Alemanha	-10.9448
迷	-10.9448
▁crítica	-10.9448
▁rejeit	-10.9448
誤解	-10.9449
▁gesto	-10.9451
が起こる	-10.9452
▁referência	-10.9453
▁rocha	-10.9453
低下	-10.9454
になれる	-10.9454
▁falei	-10.9458
できなかった	-10.946
▁criada	-10.9466
済	-10.9469
タイプ	-10.9477
望んで	-10.9479
▁estatísticas	-10.9481
▁esquecer	-10.9484
彼女の	-10.9486
知りたい	-10.9488
trai	-10.949
▁preto	-10.949
つまり	-10.9491
めた	-10.9493
宿	-10.9494
相互	-10.9494
▁そもそも	-10.9494
ギリシャ	-10.9494
▁biliões	-10.9494
▁preconceito	-10.9494
óxido	-10.9494
過剰	-10.9494
原則	-10.9494
▁completo	-10.9494
センサー	-10.9495
屋根	-10.9496
▁testa	-10.9496
▁normais	-10.9498
発言	-10.95
▁gerir	-10.9501
▁fecha	-10.9504
▁その他の	-10.9506
▁bateria	-10.9508
▁conv	-10.951
▁refleti	-10.9513
▁acelera	-10.9514
年間で	-10.9518
ナル	-10.9526
ela	-10.9528
こちら	-10.9529
▁galáxia	-10.9529
と言い	-10.9529
ónica	-10.9533
いたり	-10.9533
は常に	-10.9534
途中	-10.9535
ものなのです	-10.9539
▁instrumentos	-10.9539
▁comércio	-10.954
▁consiga	-10.954
▁sozinha	-10.954
レストラン	-10.954
▁fracasso	-10.954
個々の	-10.954
あふれ	-10.954
に戻って	-10.954
▁desliga	-10.954
▁biológico	-10.9541
境界	-10.9541
経営	-10.9541
▁cuja	-10.9541
グリーン	-10.9541
▁reside	-10.9541
教える	-10.9542
▁vá	-10.9542
言われた	-10.9542
▁trauma	-10.9543
▁editor	-10.9543
▁baseada	-10.9543
はありませんでした	-10.9545
活動家	-10.9546
あるでしょう	-10.9548
所得	-10.9549
会った	-10.9551
▁complicada	-10.9551
みて	-10.9553
▁tiro	-10.9554
▁jornal	-10.9558
時計	-10.9559
ped	-10.9564
到達	-10.9571
現れる	-10.9572
を失い	-10.9572
▁Bill	-10.9573
▁decidiu	-10.9574
くれた	-10.9578
vid	-10.9578
ラボ	-10.9579
音声	-10.958
▁regressar	-10.9585
執	-10.9586
▁México	-10.9586
▁dimensões	-10.9586
普段	-10.9586
美術館	-10.9586
懸念	-10.9586
されること	-10.9586
独自の	-10.9586
▁cujo	-10.9587
ということでした	-10.9587
偏見	-10.9588
実に	-10.9588
かれた	-10.9589
ティング	-10.959
▁dispara	-10.959
国境	-10.9592
テル	-10.9593
誤	-10.9594
▁essencialmente	-10.9594
▁そうした	-10.9594
grafia	-10.9594
▁interação	-10.9595
▁pico	-10.9595
フル	-10.9599
してる	-10.96
▁tecidos	-10.9604
かかりました	-10.9608
部位	-10.961
が必要な	-10.9611
▁antepassados	-10.9614
であろう	-10.9615
▁recu	-10.9616
誇り	-10.9618
▁poderemos	-10.9619
を表す	-10.962
▁soa	-10.9621
シンプル	-10.9622
と思い	-10.9625
境	-10.9626
▁reunir	-10.9627
節	-10.9631
▁23	-10.9632
膜	-10.9632
▁emissões	-10.9633
▁respeita	-10.9633
▁autocarro	-10.9633
オフィス	-10.9633
▁Mil	-10.9633
教訓	-10.9633
の写真です	-10.9633
▁comentário	-10.9633
▁colónia	-10.9633
▁legal	-10.9633
政権	-10.9633
世界中の	-10.9634
に過ぎません	-10.9635
特別	-10.9636
▁voltei	-10.9637
▁tinta	-10.9639
してくれた	-10.9639
有機	-10.9639
▁nasci	-10.9641
▁capa	-10.9643
見つけた	-10.9645
どうして	-10.9645
だけど	-10.9647
▁espalhar	-10.9648
ficado	-10.965
▁determinado	-10.9657
▁preparar	-10.9657
▁altamente	-10.9665
原理	-10.967
回る	-10.9671
自分達	-10.9672
物理学者	-10.9675
ngu	-10.9675
徒	-10.9675
ほんの	-10.9677
チュ	-10.9677
広がって	-10.9678
スキャン	-10.9679
ヒーロー	-10.9679
宝	-10.9679
魂	-10.9679
▁vergonha	-10.9679
▁Oriente	-10.9679
▁destruir	-10.968
▁barata	-10.968
肥満	-10.968
厳しい	-10.9681
患者が	-10.9681
▁さあ	-10.9682
▁Seria	-10.9684
だけでも	-10.9685
探検	-10.9688
何人か	-10.9693
あまりにも	-10.9693
設置	-10.9696
社員	-10.9697
お分かり	-10.9697
したいのは	-10.9703
▁surpreend	-10.9704
多様な	-10.9704
対立	-10.9706
参加者	-10.9713
28	-10.9715
Fi	-10.9716
▁poupar	-10.9718
▁自分は	-10.9718
を持た	-10.9719
隔	-10.9726
雑	-10.9726
さまざまな	-10.9726
ボランティア	-10.9726
滑	-10.9726
翻訳	-10.9726
鉱	-10.9726
▁esconder	-10.9726
修復	-10.9727
▁impressionante	-10.9727
職業	-10.9728
家族の	-10.9729
▁paisagem	-10.9729
▁tensão	-10.9731
▁imita	-10.9732
▁pensarmos	-10.9732
殺され	-10.9738
▁soldados	-10.9742
住んでいる	-10.9742
▁praia	-10.9743
依存	-10.9745
▁fizermos	-10.9745
入手	-10.9749
巻	-10.9752
▁私たちには	-10.9765
▁dificuldades	-10.9766
▁utilizado	-10.9771
せずに	-10.9771
port	-10.9772
いきました	-10.9772
フラ	-10.9773
妹	-10.9773
▁ambiental	-10.9774
▁discussão	-10.9774
▁esquerdo	-10.9774
▁obtemos	-10.9774
▁Ásia	-10.9774
哺乳類	-10.9774
たぶん	-10.9774
繁栄	-10.9774
られるように	-10.9774
投稿	-10.9774
▁creio	-10.9774
航空	-10.9774
設定	-10.9775
探索	-10.9776
▁lucro	-10.9776
者として	-10.9776
変わって	-10.9776
▁resistente	-10.9778
▁utilizadores	-10.9781
シリア	-10.9785
走り	-10.9786
▁pensamentos	-10.9787
アク	-10.9788
答	-10.9788
植え	-10.9791
▁principalmente	-10.9791
▁ossos	-10.9792
取る	-10.9794
光が	-10.9807
酷	-10.981
▁considerado	-10.9813
▁molécula	-10.9814
▁infantil	-10.9821
▁muçulmano	-10.9821
ひどく	-10.9821
プライバシー	-10.9821
posições	-10.9821
▁vazio	-10.9821
▁placa	-10.9821
▁coluna	-10.9821
▁cavalo	-10.9821
番号	-10.9821
周辺	-10.9822
Pode	-10.9825
ほぼ	-10.9826
有名	-10.9827
部品	-10.9827
▁perigosa	-10.9829
越え	-10.9833
どういうこと	-10.9834
▁criamos	-10.9835
地点	-10.9836
左側	-10.9837
量は	-10.9839
人から	-10.984
なのでしょうか	-10.9842
を感じる	-10.9843
ほか	-10.9848
▁serve	-10.9849
ことによって	-10.9854
効果的	-10.9865
parei	-10.9865
▁universal	-10.9869
墓	-10.9869
連邦	-10.9869
顕微鏡	-10.9869
▁presença	-10.9869
確保	-10.9869
▁evento	-10.9871
向こう	-10.9872
主な	-10.9876
▁composto	-10.9877
不可	-10.9878
ようでした	-10.9883
▁afastar	-10.9885
と思っています	-10.9887
タイプの	-10.989
続けました	-10.9891
れません	-10.9896
使え	-10.99
確	-10.9901
メイ	-10.9902
▁pesa	-10.9903
付けられ	-10.9908
生物学者	-10.9908
▁Mal	-10.9912
cidade	-10.9912
▁sofre	-10.9913
▁tumor	-10.9914
ミツバチ	-10.9916
克服	-10.9916
保険	-10.9916
顧客	-10.9916
▁estudante	-10.9917
推測	-10.9917
▁beber	-10.9919
賢い	-10.9925
▁letras	-10.9926
得た	-10.9931
出会った	-10.9933
▁Tivemos	-10.9938
ひとつの	-10.994
結びつけ	-10.9944
▁assumir	-10.9944
驚く	-10.9948
▁fornecer	-10.9949
駆け	-10.9951
▁torno	-10.9952
広げ	-10.9956
60%	-10.9957
えない	-10.9959
▁morto	-10.9961
らしく	-10.9962
▁apaixona	-10.9963
表示	-10.9964
▁tivéssemos	-10.9965
クジラ	-10.9965
住宅	-10.9965
歳で	-10.9966
▁cheiro	-10.9966
北極	-10.9967
美しく	-10.9967
実施	-10.9967
▁convencer	-10.9968
回路	-10.997
を経て	-10.9972
▁exploração	-10.9975
今まで	-10.998
▁determina	-10.9984
くれる	-10.9986
ホー	-10.9986
▁pares	-10.999
私の人生	-10.999
feira	-10.9993
なくなり	-11.0007
入力	-11.0009
▁algoritmo	-11.0009
おかげで	-11.0009
刑	-11.0009
しようとする	-11.0011
isto	-11.0011
▁aplicar	-11.0011
ことではありません	-11.0012
興	-11.0012
CRISPR	-11.0013
▁Canadá	-11.0013
▁curiosidade	-11.0013
▁digitais	-11.0013
▁mundiais	-11.0013
冒険	-11.0013
博物館	-11.0013
▁どうもありがとう	-11.0013
▁modela	-11.0013
抗議	-11.0013
文章	-11.0013
信念	-11.0013
お前	-11.0014
▁substituir	-11.0014
集まって	-11.0015
吹き	-11.0015
耐性	-11.0016
▁provar	-11.0017
白い	-11.0023
gal	-11.0023
費やし	-11.0024
▁私と	-11.0025
どうなるか	-11.0032
▁convida	-11.0032
信用	-11.0033
見解	-11.0034
自分に	-11.0038
個人的な	-11.0038
組み立て	-11.0039
に行きました	-11.0043
▁aprende	-11.0049
▁Estado	-11.0055
惑	-11.006
炭	-11.006
逃れ	-11.006
▁manifesta	-11.0061
ネズミ	-11.0061
▁personagens	-11.0061
癒	-11.0061
▁Iraque	-11.0061
イタリア	-11.0061
恩恵	-11.0061
▁humor	-11.0061
▁louco	-11.0061
▁chorar	-11.0062
伸び	-11.0062
ヒント	-11.0063
世界では	-11.0064
にくい	-11.0064
tel	-11.0068
格差	-11.007
を訪れ	-11.0077
▁zonas	-11.008
僕ら	-11.008
▁assustador	-11.0082
を求めて	-11.0083
出せる	-11.0092
すでに	-11.0093
家で	-11.0099
につれて	-11.0106
僕は	-11.0108
陽	-11.011
Ah	-11.011
貴	-11.011
▁antibióticos	-11.011
▁aquecimento	-11.011
▁necessita	-11.011
生き延び	-11.011
胆	-11.011
と呼んでいます	-11.011
▁aspecto	-11.011
▁honra	-11.011
▁Gostava	-11.0111
飛ぶ	-11.0111
ならず	-11.0111
想像してみてください	-11.0111
地区	-11.0112
数百	-11.0114
価	-11.0116
▁mito	-11.0118
わかり	-11.0126
▁visitar	-11.0128
上げて	-11.0137
被害	-11.0146
描いた	-11.0148
んだろう	-11.0151
tismo	-11.0152
一般的	-11.0156
▁fronteiras	-11.0156
商	-11.0158
▁civil	-11.0158
▁Começámo	-11.0159
▁Tínhamo	-11.0159
▁garrafa	-11.0159
▁incentivo	-11.0159
▁regiões	-11.0159
▁tubarões	-11.0159
羊	-11.0159
▁estaminais	-11.0159
皮肉	-11.016
ónio	-11.016
受賞	-11.016
▁basta	-11.016
残念	-11.0161
探求	-11.0161
▁levá	-11.0162
▁acusa	-11.0164
ってしまう	-11.0166
かのように	-11.0167
重要なこと	-11.017
年までに	-11.0174
▁地元の	-11.0176
▁garanti	-11.0178
はっきり	-11.0182
ティン	-11.0183
▁braços	-11.019
▁conflitos	-11.0197
に戻る	-11.0206
ナイジェリア	-11.0208
房	-11.0208
寒	-11.0208
柔軟	-11.0208
▁Certo	-11.0208
▁privacidade	-11.0209
▁olhem	-11.0209
由来	-11.0209
▁Gostaria	-11.0209
ウォー	-11.0209
閉じ	-11.021
分かれ	-11.021
影響力	-11.021
と思っていました	-11.021
ケニア	-11.0211
似ています	-11.0211
発想	-11.0212
▁surgiu	-11.0214
ボード	-11.0216
密度	-11.0219
上手	-11.0222
tch	-11.0225
ッキー	-11.023
▁enfrenta	-11.0231
▁こちらの	-11.0233
気候変動	-11.0234
▁músculos	-11.0235
地方	-11.0236
▁gostamos	-11.0239
▁acredita	-11.0239
必要なのは	-11.0239
pur	-11.0241
につれ	-11.0242
ker	-11.0243
開いて	-11.0246
研究室	-11.0247
死んだ	-11.0251
沈	-11.0258
盤	-11.0258
▁acrescenta	-11.0258
典型的な	-11.0258
蜂	-11.0258
考慮	-11.0258
▁genético	-11.0258
信仰	-11.0258
方々	-11.0258
聴衆	-11.0258
区別	-11.0259
マイル	-11.0262
おらず	-11.0263
するべき	-11.0266
を用い	-11.0266
デモ	-11.0267
スタート	-11.027
▁confiar	-11.0271
右側	-11.0273
使っている	-11.0273
▁250	-11.0274
▁pedido	-11.0278
学校の	-11.0279
▁torre	-11.028
男性は	-11.0282
状態で	-11.0285
29	-11.0285
中東	-11.0286
▁deixam	-11.0293
▁obras	-11.0293
わかりました	-11.0299
▁componentes	-11.0301
施	-11.0305
練	-11.0307
棒	-11.0308
▁Médio	-11.0308
▁desperdício	-11.0308
▁metáfora	-11.0308
▁relevante	-11.0308
冬	-11.0308
詞	-11.0308
▁nariz	-11.0308
減らす	-11.0308
匂い	-11.0308
ngo	-11.0311
▁éramos	-11.0312
悪化	-11.0312
▁tiver	-11.0313
prestes	-11.0313
コメント	-11.0313
選んだ	-11.0314
▁これこそ	-11.0318
と考えました	-11.0319
これから	-11.032
おうと	-11.0321
患者に	-11.0326
▁senhor	-11.0329
mail	-11.033
トゥ	-11.0331
▁次は	-11.0332
もらう	-11.0333
▁descobertas	-11.0337
少数	-11.0338
▁defender	-11.0342
▁falava	-11.0352
なくなって	-11.0353
磁	-11.0354
▁mentira	-11.0355
いって	-11.0356
書く	-11.0356
停	-11.0357
ini	-11.0358
<	-11.0358
>	-11.0358
▁avanço	-11.0358
▁hospitais	-11.0358
▁telescópio	-11.0358
▁volume	-11.0358
徐々に	-11.0358
臭	-11.0358
いっぱい	-11.0358
ステップ	-11.0359
▁viagens	-11.0359
表情	-11.036
▁gostar	-11.036
▁instrumento	-11.0361
LA	-11.0361
公園	-11.0362
Ele	-11.0362
▁Nesse	-11.0363
▁ligados	-11.0363
適用	-11.0364
ómica	-11.0364
終わる	-11.0364
いただき	-11.0365
しまい	-11.0368
最低	-11.0372
だとか	-11.0372
To	-11.0373
クリック	-11.0373
人生で	-11.0374
撮った	-11.0374
▁haverá	-11.0375
▁propriedades	-11.0379
見出し	-11.0388
二つ	-11.0389
遺伝	-11.0391
標的	-11.0392
突然	-11.0392
踊	-11.0393
数千	-11.0396
を始めた	-11.0399
困難な	-11.0402
知りません	-11.0405
束	-11.0405
死亡	-11.0405
てほしい	-11.0407
▁competências	-11.0408
塩	-11.0408
グーグル	-11.0408
▁comboio	-11.0408
雑誌	-11.0408
ユーザー	-11.0408
違法	-11.0409
知覚	-11.0409
見かけ	-11.041
▁ficção	-11.0411
▁tribo	-11.0414
気付きました	-11.0415
に入った	-11.0416
未だ	-11.0417
▁tornei	-11.0418
▁salto	-11.0418
▁eficazes	-11.0419
と同時に	-11.042
燃	-11.0421
を見てください	-11.0422
とは何か	-11.0424
▁produzem	-11.0425
尋ねました	-11.043
habitat	-11.0431
文書	-11.0431
▁crescente	-11.0433
が起きる	-11.0437
を利用し	-11.0438
倒	-11.0442
他に	-11.0445
ity	-11.0446
▁pensarem	-11.045
▁ある意味	-11.0456
療法	-11.0458
▁desigualdade	-11.0458
▁máximo	-11.0458
▁profundidade	-11.0458
お母さん	-11.0458
気づく	-11.0458
▁acumula	-11.0458
ヴェ	-11.0459
聞かせ	-11.0459
▁raça	-11.0461
なのだ	-11.0462
▁sabor	-11.0464
hip	-11.0466
▁transmitir	-11.0467
one	-11.0467
▁limita	-11.0468
必要はありません	-11.0471
チョ	-11.0473
女性たち	-11.0475
太陽系	-11.0476
▁significativo	-11.0476
と答え	-11.0476
更	-11.0477
▁pó	-11.0482
▁morrem	-11.0487
水素	-11.0489
▁atravessa	-11.049
われる	-11.0492
いるのか	-11.0499
私達が	-11.0506
孫	-11.0509
肌	-11.0509
貼	-11.0509
▁chegámos	-11.0509
▁chinês	-11.0509
▁escolhi	-11.0509
▁igreja	-11.0509
アンダーソン	-11.0509
▁entrou	-11.0509
パリ	-11.051
▁civilização	-11.051
光景	-11.051
融合	-11.051
姿勢	-11.0511
当てはま	-11.0512
▁fronteira	-11.0513
▁recolh	-11.0514
▁aplicações	-11.0516
▁sombra	-11.0518
主要な	-11.0521
ないもの	-11.0524
pus	-11.0526
▁Dois	-11.0527
故	-11.0529
▁acabam	-11.0529
存在します	-11.0532
ようとする	-11.0541
▁amostras	-11.0546
を見つけました	-11.0547
外国	-11.0548
▁baseado	-11.0548
▁complexos	-11.0548
住み	-11.055
周りに	-11.0555
▁interessados	-11.0559
貯	-11.056
塊	-11.056
▁Acredito	-11.056
▁persegui	-11.056
▁tradicionais	-11.056
▁apartamento	-11.056
▁bandeira	-11.056
氷河	-11.0561
▁poema	-11.0561
退屈	-11.0561
▁sugere	-11.0561
反射	-11.0561
ボタン	-11.0564
▁2011	-11.0566
▁どれも	-11.0566
逃	-11.0568
▁estarem	-11.0569
ポート	-11.0571
▁enche	-11.0571
があるか	-11.0577
数週間	-11.0578
▁leite	-11.0578
▁houver	-11.0581
シーン	-11.0581
っていない	-11.0591
▁mamíferos	-11.0594
▁salário	-11.0594
指導	-11.0594
clar	-11.0599
レク	-11.0605
となっています	-11.0606
sistente	-11.0606
▁apanha	-11.0607
放射	-11.0611
▁adquiri	-11.0611
▁atitude	-11.0611
▁clínico	-11.0611
▁compromisso	-11.0611
▁vantagem	-11.0611
▁ちなみに	-11.0611
湖	-11.0611
遡	-11.0611
▁Reparem	-11.0612
▁残念ながら	-11.0612
▁monitor	-11.0612
▁idosos	-11.0612
石炭	-11.0612
▁もはや	-11.0613
態度	-11.0613
強制	-11.0613
▁escultura	-11.0613
大きな問題	-11.0613
固定	-11.0614
stig	-11.0618
▁2015	-11.0619
段階で	-11.0622
▁refere	-11.0624
外で	-11.0626
自然に	-11.0627
ícia	-11.0631
バラ	-11.0638
壊れ	-11.0641
▁vacinas	-11.0642
▁nega	-11.0642
別に	-11.065
▁Wa	-11.0652
人たちに	-11.0654
▁Dia	-11.0654
ferência	-11.0657
▁falo	-11.066
貨	-11.0662
福	-11.0663
▁Inglaterra	-11.0663
▁inimigo	-11.0663
▁responsáveis	-11.0663
すっかり	-11.0663
▁extremo	-11.0664
ótica	-11.0664
見つかり	-11.0664
新たに	-11.0667
食品	-11.0668
line	-11.0672
第二	-11.0676
▁entusiasmado	-11.0677
繋	-11.0678
▁presos	-11.0679
▁最初は	-11.0679
千人	-11.0679
▁trabalhava	-11.0681
を行いました	-11.0686
新しく	-11.0689
▁passava	-11.0689
▁lava	-11.0692
OK	-11.0693
にとっても	-11.0699
さえも	-11.0701
大勢	-11.0702
相手に	-11.0703
強さ	-11.0707
哲学	-11.0711
を読み	-11.0713
▁ただし	-11.0713
比	-11.0714
▁líquido	-11.0715
▁voluntário	-11.0715
戸	-11.0715
暖	-11.0715
耳を傾け	-11.0715
香	-11.0715
▁traduzi	-11.0715
▁autismo	-11.0715
苦労	-11.0715
及ぶ	-11.0715
▁condutor	-11.0715
▁empurra	-11.0716
ドゥ	-11.072
されていません	-11.0724
▁metro	-11.0724
ているか	-11.0725
出産	-11.0726
量子	-11.0726
▁falhar	-11.0728
víamos	-11.0732
記者	-11.0732
を切り	-11.0733
社会的な	-11.0734
と考えられ	-11.0734
▁saída	-11.0735
重要性	-11.0735
▁negativo	-11.074
▁assusta	-11.0741
▁enca	-11.0743
遅れ	-11.0747
海に	-11.0748
休	-11.0751
決めました	-11.0754
テク	-11.0754
▁iriam	-11.0757
緑の	-11.0758
いいですか	-11.0763
今回	-11.0765
キャンプ	-11.0767
飾	-11.0767
林	-11.0767
▁anúncio	-11.0767
▁imprensa	-11.0767
▁personalidade	-11.0767
灯	-11.0767
▁relatório	-11.0767
▁ajudou	-11.0767
▁Quase	-11.0767
解析	-11.0767
▁ensaio	-11.0767
変換	-11.0767
▁exigi	-11.0767
▁ultra	-11.0767
影響を受け	-11.0768
にせよ	-11.0769
▁investigar	-11.0769
もらいました	-11.0769
広がる	-11.0773
考えていました	-11.0773
▁respiração	-11.0774
不思議	-11.0774
いつでも	-11.0776
民間	-11.0777
外科医	-11.0777
スクリーン	-11.0778
ようなもの	-11.0778
▁treina	-11.0779
ologista	-11.0783
▁instala	-11.0787
すぎて	-11.079
前から	-11.079
が起きた	-11.0791
▁beb	-11.0791
行きました	-11.0793
壁に	-11.0796
支払	-11.0797
フィー	-11.0798
いいえ	-11.0798
必要とする	-11.0801
▁Fala	-11.0805
解放	-11.0805
見ることができます	-11.0805
サイン	-11.0806
言葉で	-11.0811
▁dinossauros	-11.0817
ファイ	-11.0819
党	-11.0819
▁adequada	-11.0819
▁dinâmica	-11.0819
▁lógica	-11.0819
▁tempestade	-11.0819
貫	-11.0819
▁aconteça	-11.0819
▁bolsa	-11.0819
▁domínio	-11.0819
追求	-11.0819
各	-11.0819
るのを	-11.0822
地帯	-11.0825
ミン	-11.0825
目撃	-11.083
▁busca	-11.0836
解き	-11.0839
が見える	-11.084
▁banda	-11.0843
は何でしょう	-11.0843
▁recolher	-11.0845
数ヶ月	-11.0845
▁ajudam	-11.0846
眠り	-11.0846
▁Lua	-11.0851
してもらい	-11.0854
Está	-11.0854
▁partida	-11.0855
▁estaria	-11.0863
これら	-11.0864
ificar	-11.0866
分離	-11.0869
▁Ocidente	-11.0872
▁precisão	-11.0872
償	-11.0872
▁França	-11.0872
被験者	-11.0872
改良	-11.0872
採取	-11.0872
輸送	-11.0873
▁terrorismo	-11.0873
思想	-11.0873
▁ligado	-11.0873
ショック	-11.0873
濃度	-11.0874
んだよ	-11.0874
▁esteve	-11.0874
▁Ber	-11.0876
▁agentes	-11.0878
▁associado	-11.0881
cí	-11.0882
grade	-11.0883
理解して	-11.0885
▁igualmente	-11.0886
占	-11.0887
あい	-11.089
▁cabo	-11.089
▁vende	-11.0898
まって	-11.0901
▁achava	-11.0902
彼を	-11.0905
合った	-11.0907
イルカ	-11.0907
ólogos	-11.0917
を買う	-11.0917
▁diga	-11.0917
ハチ	-11.0917
続けています	-11.0917
▁extrema	-11.0918
たところ	-11.0921
▁cães	-11.0925
▁especiais	-11.0925
▁técnico	-11.0925
いわゆる	-11.0925
ウィルス	-11.0925
募	-11.0925
田舎	-11.0925
▁pensámos	-11.0925
依頼	-11.0925
▁biológica	-11.0925
▁defesa	-11.0926
▁sabíamos	-11.0926
連続	-11.0926
欠け	-11.0926
こう言う	-11.0928
▁verificar	-11.093
▁真の	-11.0931
携	-11.0931
▁2012	-11.0931
▁perante	-11.0932
感動	-11.0935
トレー	-11.0942
85	-11.0943
▁Descobrimos	-11.0947
▁declara	-11.095
▁ratos	-11.0951
間違って	-11.0956
▁avaliar	-11.0956
子供は	-11.0962
化された	-11.0963
▁inde	-11.0965
▁carga	-11.0965
▁piada	-11.0966
優秀な	-11.0967
▁mama	-11.0968
▁残りの	-11.0974
幻	-11.0978
サンフランシスコ	-11.0978
履	-11.0978
涙	-11.0978
▁Einstein	-11.0978
▁Francisco	-11.0978
▁PIB	-11.0978
▁parecida	-11.0978
▁prioridade	-11.0978
柱	-11.0978
看	-11.0978
▁destruição	-11.0978
▁empresário	-11.0978
▁sabedoria	-11.0978
奇跡	-11.0978
▁primo	-11.0978
求める	-11.0979
を選ぶ	-11.0979
▁puxa	-11.098
▁nervoso	-11.0981
一瞬	-11.0983
▁fraca	-11.0985
水中	-11.0987
▁mosquitos	-11.0987
▁competição	-11.0988
▁familiares	-11.0989
を広げ	-11.0989
..."	-11.0989
を使います	-11.099
カリ	-11.0991
ポール	-11.0992
があるからです	-11.0993
分かっている	-11.1007
なってしまう	-11.1008
を作り出し	-11.1011
与	-11.1014
義務	-11.1015
ピア	-11.1016
始まりました	-11.1018
▁saco	-11.1022
一緒	-11.1027
多数	-11.1027
起こす	-11.1028
留ま	-11.1028
の表面	-11.1028
息を	-11.1028
ケン	-11.1029
百万人	-11.1031
▁deficiência	-11.1032
▁relógio	-11.1032
コンテンツ	-11.1032
生じる	-11.1032
経験した	-11.1032
▁virtual	-11.1033
を利用して	-11.1034
撮り	-11.1034
知った	-11.1035
▁infelizmente	-11.1035
を送り	-11.1036
のうちに	-11.1037
▁evoluí	-11.104
地位	-11.104
使った	-11.1047
みなさん	-11.1051
もらい	-11.1053
使い方	-11.1053
▁habita	-11.1058
年生	-11.1062
こともできます	-11.1064
▁この技術	-11.1066
しているからです	-11.1067
の一つは	-11.1068
lguns	-11.1074
バック	-11.1079
出すこと	-11.1079
監	-11.1085
煙	-11.1085
▁Harvard	-11.1085
▁cerebrais	-11.1085
▁gestão	-11.1085
▁impulso	-11.1085
▁ligeiramente	-11.1085
▁mecânica	-11.1085
▁Estávamos	-11.1085
▁proibi	-11.1085
詳しく	-11.1086
意義	-11.1086
▁fizesse	-11.1086
感染症	-11.1087
▁tentei	-11.1088
キャリア	-11.1088
▁Steve	-11.1089
▁Podia	-11.109
▁vesti	-11.1097
おく	-11.1097
語る	-11.1098
▁colaboração	-11.1099
▁morre	-11.1105
▁setor	-11.1105
▁piores	-11.1106
Quando	-11.1107
▁transformação	-11.111
▁executa	-11.1115
▁quilo	-11.112
▁IA	-11.1122
Por	-11.1122
全く同じ	-11.1129
プラン	-11.1136
泳	-11.1138
ística	-11.1139
▁George	-11.1139
▁Quénia	-11.1139
▁protótipo	-11.1139
▁romance	-11.1139
伝染	-11.114
ホテル	-11.114
放射線	-11.1141
▁そこは	-11.1141
ロケット	-11.1142
戦う	-11.1143
▁Chi	-11.1145
著	-11.115
飢	-11.1153
▁presta	-11.1153
▁vinha	-11.1162
cultura	-11.1162
ではありませんでした	-11.1164
▁criando	-11.1165
ワーク	-11.1165
聞こえる	-11.1167
▁esperamos	-11.1168
押	-11.1169
エア	-11.1171
を受けて	-11.1172
ケイ	-11.1176
ことのない	-11.1181
行っている	-11.1181
に達し	-11.1183
▁Tra	-11.1183
▁tendo	-11.119
染	-11.1192
稼	-11.1193
講	-11.1193
▁órbita	-11.1194
アインシュタイン	-11.1194
矛盾	-11.1194
冊	-11.1194
気づいて	-11.1194
▁arrisca	-11.1194
CEO	-11.1194
過激	-11.1194
暗号	-11.1194
▁irrita	-11.1195
▁desconhecido	-11.1196
良かった	-11.1196
▁XXI	-11.1196
が必要だ	-11.1196
完璧な	-11.1196
▁conseguiram	-11.1197
健康な	-11.1198
▁dieta	-11.1198
▁proposta	-11.12
何十億	-11.12
▁limitado	-11.12
だったので	-11.1218
できています	-11.1223
▁passada	-11.1234
説明します	-11.124
自体が	-11.1241
同じことを	-11.1242
裂	-11.1246
財	-11.1247
ológica	-11.1248
▁desempenha	-11.1248
硬	-11.1248
頻繁に	-11.1248
緊張	-11.1248
▁telhado	-11.1248
抑制	-11.1248
健全	-11.1249
▁nuvem	-11.1249
階級	-11.1249
推進	-11.1249
配列	-11.125
以内	-11.1251
グレー	-11.1253
会う	-11.1253
驚くほど	-11.1255
カス	-11.1255
千万	-11.1259
Tu	-11.1259
Uau	-11.1259
nch	-11.1261
▁detalhes	-11.1264
早い	-11.1265
▁amostra	-11.1267
▁publicado	-11.1268
可能性があります	-11.1269
移住	-11.1282
▁machos	-11.1282
▁aproximar	-11.1282
に直面し	-11.1288
▁elimina	-11.1289
▁ocidental	-11.129
ロード	-11.129
ani	-11.1291
▁acabaram	-11.1292
作物	-11.1293
作ろうと	-11.1293
友	-11.1295
ウォ	-11.1297
▁recorda	-11.1297
ハム	-11.1298
るべきです	-11.1301
▁inferior	-11.1303
スピーチ	-11.1303
▁recife	-11.1303
▁apareci	-11.1303
▁Times	-11.1304
▁instante	-11.1304
を超える	-11.1305
変更	-11.1306
死刑	-11.1307
科医	-11.1308
ペット	-11.1312
議員	-11.1316
▁inspiração	-11.1317
イー	-11.1318
▁levam	-11.1318
行け	-11.132
かつて	-11.1321
ているのか	-11.1322
▁entram	-11.1322
生体	-11.1326
▁vaca	-11.1326
▁nasceu	-11.1326
聞いたこと	-11.1327
取った	-11.1329
私にとって	-11.133
▁combater	-11.133
存在しない	-11.1331
唯一	-11.1333
知りました	-11.1334
▁sementes	-11.1334
あるべき	-11.1335
心地	-11.1335
していきます	-11.1336
ホール	-11.1337
▁inventar	-11.1337
ているからです	-11.1338
カラ	-11.1338
ィ	-11.1339
を押し	-11.1341
▁Lei	-11.1344
▁continu	-11.1346
▁chimpanzés	-11.135
▁fato	-11.1357
▁amanhã	-11.1359
▁elétrico	-11.1359
▁futebol	-11.1359
▁fósseis	-11.1359
▁necessariamente	-11.1359
▁resolução	-11.1359
▁sanguíneo	-11.1359
スウェーデン	-11.1359
烈	-11.1359
衰	-11.1359
▁avô	-11.1359
▁elétrica	-11.1359
欲求	-11.1359
終わった	-11.1359
彫刻	-11.1359
直面する	-11.1359
つながる	-11.1359
独裁	-11.1359
▁mortalidade	-11.1359
反映	-11.136
思える	-11.1361
間違った	-11.1363
脳内	-11.1364
圧力	-11.1364
文学	-11.1366
勧め	-11.137
用語	-11.1373
掘り	-11.1374
完全	-11.1384
▁macacos	-11.1386
▁combate	-11.1388
â	-11.1392
を作ること	-11.1393
を取って	-11.1394
連れ	-11.1404
史	-11.1404
ento	-11.1406
婚	-11.1413
▁Austrália	-11.1414
▁poluição	-11.1414
▁substância	-11.1414
ハーバード	-11.1414
叩	-11.1414
惨	-11.1414
▁ansiedade	-11.1414
▁coletiva	-11.1414
▁funções	-11.1414
デバイス	-11.1414
ラジオ	-11.1414
玉	-11.1414
▁vieram	-11.1414
してくれます	-11.1414
▁hábito	-11.1415
早期	-11.1415
▁aparecem	-11.1416
はずだ	-11.1424
驚いた	-11.1425
南アフリカ	-11.1431
▁最終的には	-11.1431
▁pensado	-11.1443
を書く	-11.1445
▁encontrou	-11.1446
izou	-11.145
stituição	-11.1454
ばかりです	-11.1454
ことについて	-11.1455
▁acreditava	-11.1461
と言えば	-11.1466
pós	-11.1468
▁fale	-11.1469
▁economista	-11.147
▁mínimo	-11.147
▁sapatos	-11.147
悲しみ	-11.147
▁urbano	-11.147
スティーブ	-11.147
▁esfera	-11.147
▁Encontra	-11.147
転換	-11.147
摂取	-11.147
▁choque	-11.1471
▁respirar	-11.1471
到着	-11.1471
制約	-11.1472
▁seguida	-11.1474
▁去年	-11.1475
▁militares	-11.1475
▁Entre	-11.1476
▁apercebi	-11.1476
▁instru	-11.1476
生命体	-11.1481
▁gasto	-11.1488
▁respondeu	-11.1488
nico	-11.149
を学ぶ	-11.1491
目にする	-11.1495
▁そのために	-11.1497
▁chegaram	-11.1499
▁encontrado	-11.152
察	-11.1525
授	-11.1525
という事です	-11.1525
グリ	-11.1526
▁conheço	-11.1526
▁encaixa	-11.1526
▁negocia	-11.1526
衣	-11.1526
還	-11.1526
仮想	-11.1527
警告	-11.1527
検証	-11.1527
▁lidera	-11.1527
節約	-11.1527
▁botão	-11.1527
ご覧ください	-11.1528
保守	-11.1528
▁acontecimentos	-11.1528
プレ	-11.1528
倫理	-11.1529
▁representar	-11.1529
じゃあ	-11.1531
せない	-11.1532
▁duro	-11.1533
▁Nacional	-11.1534
ベルト	-11.1535
mite	-11.1537
▁cruza	-11.1544
誇	-11.1544
▁conhecia	-11.1548
の割合	-11.155
何百	-11.1553
ジャン	-11.1556
用意	-11.1557
▁rota	-11.1558
を見ている	-11.1559
▁mora	-11.1561
に渡って	-11.1562
寄り	-11.1563
▁correto	-11.1565
サラ	-11.1572
おそらく	-11.1573
▁このプロジェクト	-11.1575
▁revi	-11.1577
電池	-11.1579
▁personagem	-11.1583
▁teatro	-11.1583
ペンギン	-11.1583
吐	-11.1583
看護師	-11.1583
パズル	-11.1583
▁Afinal	-11.1583
イベント	-11.1583
▁medula	-11.1583
▁aventura	-11.1583
停止	-11.1583
災害	-11.1583
警官	-11.1583
以外	-11.1583
収容	-11.1584
生理	-11.1584
▁ampla	-11.1585
欧州	-11.1586
チップ	-11.159
▁funcionários	-11.1593
▁construída	-11.1596
▁combinação	-11.16
▁avalia	-11.1601
Con	-11.1602
▁digamos	-11.1604
5000	-11.1604
ロール	-11.1607
を表し	-11.161
▁sonda	-11.1616
お互い	-11.1622
▁corta	-11.1626
ografia	-11.1628
designers	-11.1629
提	-11.1629
▁determinada	-11.163
一定	-11.1631
▁emprega	-11.1635
偏	-11.1637
出た	-11.1637
春	-11.1639
▁tentam	-11.1639
▁Obviamente	-11.1639
▁candidato	-11.1639
▁globais	-11.1639
▁prisioneiro	-11.1639
▁etiqueta	-11.1639
▁cuidar	-11.1639
慈善	-11.1639
▁redução	-11.1639
虐待	-11.164
投与	-11.164
砂糖	-11.164
▁Paris	-11.1642
部族	-11.1643
分布	-11.1644
▁1980	-11.1645
経路	-11.1646
そこで	-11.1651
を開発し	-11.1651
▁corais	-11.1651
自分自身	-11.1653
世話	-11.1654
黒い	-11.166
lhámos	-11.1661
▁mina	-11.1663
▁comunica	-11.1665
▁saiu	-11.1666
AT	-11.1667
▁macho	-11.1669
送られ	-11.1669
▁recebem	-11.167
dro	-11.1674
▁lida	-11.1678
▁teríamos	-11.1679
▁mudam	-11.1679
できませんでした	-11.1682
呼ばれ	-11.1683
▁linda	-11.1684
読者	-11.1685
educ	-11.1689
の本質	-11.169
べきか	-11.1691
信じている	-11.1692
▁bolo	-11.1694
▁tirada	-11.1695
操	-11.1695
粘	-11.1696
パソコン	-11.1697
▁XIX	-11.1697
▁exactamente	-11.1697
▁procedimento	-11.1697
▁vigilância	-11.1697
灰	-11.1697
▁poesia	-11.1697
▁pareça	-11.1697
拡張	-11.1697
▁curta	-11.1697
通常	-11.1697
人種差別	-11.1697
探査	-11.1697
▁participantes	-11.17
どちら	-11.17
▁acabado	-11.17
勝ち	-11.17
面積	-11.1701
▁lentamente	-11.1702
▁なんと	-11.1703
マシン	-11.1703
▁Irão	-11.1704
最小	-11.1704
と同じです	-11.1711
▁criaram	-11.1716
▁assistir	-11.1716
溶け	-11.1716
更に	-11.1716
ロック	-11.1717
cle	-11.1719
フィン	-11.1723
▁excitante	-11.1724
申し	-11.1729
てみました	-11.173
いいのです	-11.1739
思っています	-11.1739
マイク	-11.1749
ればいい	-11.1751
ハエ	-11.1752
スタッフ	-11.1752
不満	-11.1752
輸	-11.1753
物事を	-11.1753
傾	-11.1754
膨	-11.1754
兄	-11.1754
−	-11.1754
にも関わらず	-11.1754
庫	-11.1754
▁sobrevive	-11.1754
辿	-11.1754
GDP	-11.1754
緊急	-11.1754
ダウン	-11.1755
▁descer	-11.1755
置かれ	-11.1757
▁leitura	-11.1757
デュ	-11.1758
タス	-11.1759
▁BG	-11.1765
▁そうして	-11.1771
rum	-11.1774
▁Mc	-11.1775
やろうと	-11.1778
▁proteína	-11.1778
切って	-11.1782
払い	-11.1783
起きて	-11.1786
に目を向け	-11.1786
グラム	-11.1787
▁人類は	-11.1791
▁aterra	-11.1792
▁assisti	-11.1793
だったり	-11.18
存	-11.1804
かれる	-11.1805
不正	-11.1805
47	-11.1807
▁diante	-11.181
昼	-11.1811
▁diminuir	-11.1811
冗談	-11.1812
▁Angeles	-11.1812
▁mágico	-11.1812
悟	-11.1812
▁Coreia	-11.1812
英雄	-11.1812
人工知能	-11.1812
ライオン	-11.1813
▁reconhecimento	-11.1813
ゾウ	-11.1815
なしで	-11.1815
火星	-11.1819
もらえ	-11.182
化石	-11.1821
いけない	-11.1823
▁interessado	-11.1829
求められ	-11.1831
▁chamou	-11.1833
はこうです	-11.1835
parece	-11.1836
▁consequência	-11.1837
IT	-11.184
▁representação	-11.1842
▁lições	-11.1843
▁本物の	-11.1849
âmi	-11.1852
48	-11.1854
個体	-11.1855
▁seguido	-11.1855
Aquilo	-11.1856
真似	-11.1858
▁militar	-11.1864
Precis	-11.1867
▁Finalmente	-11.187
▁quântica	-11.187
▁testemunha	-11.187
恐らく	-11.187
桁	-11.187
プレゼン	-11.187
役に立つ	-11.187
需要	-11.187
▁recicla	-11.187
veis	-11.1871
▁ficava	-11.1872
▁reuniões	-11.1872
タイムズ	-11.1873
悪いこと	-11.1874
デート	-11.1874
Qual	-11.1876
▁alemã	-11.1877
▁Ouvi	-11.1877
▁relacionado	-11.1878
公式	-11.1878
▁aprendem	-11.1879
▁negativa	-11.1883
読んだ	-11.1891
ることなく	-11.1894
▁acreditamos	-11.1895
▁organismo	-11.1896
▁sab	-11.1896
▁crescem	-11.1897
が高く	-11.1899
tz	-11.19
▁olhou	-11.1902
▁人類が	-11.1911
決めた	-11.1916
泣き	-11.1918
家に帰	-11.1919
齢	-11.1924
だけでした	-11.1924
しなければならない	-11.1925
明日	-11.1925
躍	-11.1928
▁académico	-11.1928
▁bocadinho	-11.1928
普及	-11.1928
泡	-11.1928
▁ativista	-11.1928
遣	-11.1928
nomia	-11.1929
美しさ	-11.1929
▁raiva	-11.1929
▁Adoro	-11.1929
スキー	-11.193
配置	-11.193
▁constitu	-11.193
させられ	-11.1933
▁professora	-11.1933
麻薬	-11.1933
▁instituição	-11.1934
▁Leva	-11.1936
てはいけない	-11.1941
▁actual	-11.1943
の一つです	-11.1944
▁canal	-11.1944
ッカー	-11.1946
既	-11.1948
というのが	-11.1953
感じている	-11.1954
なかったら	-11.1963
lly	-11.1964
▁correta	-11.1964
なしに	-11.1967
▁previ	-11.1968
▁interna	-11.1977
org	-11.1978
ようになって	-11.1979
っこ	-11.1979
不思議な	-11.1979
弟	-11.1987
▁circuito	-11.1987
▁córtex	-11.1987
▁expansão	-11.1987
▁movimenta	-11.1987
絞	-11.1987
▁exceto	-11.1987
おかしい	-11.1987
イスラム教徒	-11.1987
相談	-11.1988
ソーシャルメディア	-11.1988
▁gases	-11.1989
気付いた	-11.199
▁Can	-11.1991
if	-11.1992
を必要とし	-11.1993
死亡率	-11.1993
万年	-11.1996
生み出し	-11.1996
使われています	-11.1999
▁atinge	-11.2014
実現する	-11.2014
大好きな	-11.2016
▁provocar	-11.2017
原子力	-11.2018
においても	-11.2023
Vou	-11.2024
道徳	-11.2028
Re	-11.2032
定め	-11.2033
55	-11.2034
▁respira	-11.2038
てしまうのです	-11.2041
▁pratica	-11.2042
霊	-11.2046
▁acontecido	-11.2046
▁combustíveis	-11.2046
▁dúzia	-11.2046
▁horrível	-11.2046
▁raízes	-11.2046
五	-11.2046
▁dispostos	-11.2046
だらけ	-11.2047
安価	-11.2047
最悪	-11.2048
テロリスト	-11.2048
▁general	-11.2048
エイズ	-11.205
サイバー	-11.205
▁calcula	-11.2051
シル	-11.2054
ていなかった	-11.2056
と言えます	-11.2057
▁2005	-11.2058
▁mergulh	-11.2058
合法	-11.2059
標	-11.2061
かしら	-11.2062
▁comparar	-11.2063
ワン	-11.2069
ボート	-11.2072
複製	-11.2074
▁pura	-11.208
▁resolve	-11.2082
簡単です	-11.2088
▁ataca	-11.209
去り	-11.2096
MA	-11.2097
ウェイ	-11.2104
離れて	-11.2105
▁アメリカでは	-11.2105
幾	-11.2105
▁azuis	-11.2106
▁molecular	-11.2106
▁orçamento	-11.2106
ワクワク	-11.2106
思い浮かべ	-11.2106
赤ん坊	-11.2106
▁Decidi	-11.2106
気づか	-11.2107
具合	-11.2109
負け	-11.211
内側	-11.2112
▁focar	-11.2119
知られています	-11.2119
タグ	-11.2119
移行	-11.2123
▁revelar	-11.2124
言わせ	-11.2125
Estou	-11.2126
違	-11.2133
▁treinar	-11.2145
▁voa	-11.2146
因	-11.2151
取り組んで	-11.2155
▁cap	-11.2156
当たり前	-11.216
を作ります	-11.2162
ウン	-11.2164
拠	-11.2165
審	-11.2166
パキスタン	-11.2166
▁aniversário	-11.2166
▁diversos	-11.2166
▁histórico	-11.2166
▁percentagem	-11.2166
リーダーシップ	-11.2166
華	-11.2166
▁recruta	-11.2166
▁invenção	-11.2166
分泌	-11.2166
生殖	-11.2166
階段	-11.2166
ダーウィン	-11.2166
風景	-11.2167
指標	-11.2167
▁tradição	-11.2167
▁urso	-11.2168
すればいい	-11.2169
回答	-11.2169
介入	-11.2169
幼い	-11.2174
▁従来の	-11.2175
▁esperava	-11.2176
▁bens	-11.2178
▁captar	-11.218
▁prato	-11.2182
後ろに	-11.2187
▁organizar	-11.2193
ブログ	-11.2194
を借り	-11.2195
もらえる	-11.2195
▁perdemos	-11.2197
正確	-11.2202
出来ない	-11.2204
▁cultiv	-11.2207
▁protege	-11.2207
▁representam	-11.2209
手に入れ	-11.2214
どれだけ	-11.2214
▁tomada	-11.2223
▁levado	-11.2225
領	-11.2226
リアル	-11.2226
▁circunstâncias	-11.2226
根本的な	-11.2226
沈黙	-11.2226
▁internacionais	-11.2226
▁aviões	-11.2226
財団	-11.2226
講義	-11.2226
納得	-11.2227
及び	-11.2227
知恵	-11.2227
の多くが	-11.2228
を重ね	-11.2228
▁lento	-11.223
▁cantar	-11.2235
ling	-11.2237
▁curar	-11.224
夢中	-11.224
てしまい	-11.2241
経済学者	-11.2242
▁radio	-11.2243
わずかな	-11.2243
を取り出し	-11.2245
生まれて	-11.2246
▁Fre	-11.2247
開く	-11.2249
門	-11.2249
であろうと	-11.2249
いいでしょう	-11.2253
判	-11.2253
長期的	-11.2258
▁caí	-11.2261
らどうでしょう	-11.2264
成功した	-11.2266
▁sobrevivente	-11.2266
▁trabalhamos	-11.2266
名付け	-11.2269
▁encontraram	-11.227
毎年	-11.227
sculp	-11.2275
▁transmiti	-11.2277
変わります	-11.2277
文化的	-11.2282
拍	-11.2284
▁sorri	-11.2286
向かって	-11.2286
▁metal	-11.2287
▁Richard	-11.2287
▁mostrei	-11.2287
監督	-11.2287
翼	-11.2287
抽象	-11.2287
を研究し	-11.2287
▁quisesse	-11.2287
もあれば	-11.2287
得意	-11.2289
行われた	-11.229
▁2014	-11.2291
▁habitualmente	-11.2291
▁andam	-11.2291
南部	-11.2292
曲線	-11.2294
事柄	-11.2295
非難	-11.2295
▁2006	-11.2297
したいのです	-11.2298
▁regra	-11.2303
当初	-11.2305
▁Pois	-11.2305
子どもが	-11.2305
形式	-11.2305
just	-11.2306
製作	-11.2313
を超えて	-11.2314
肉体	-11.2314
▁canção	-11.2323
割合	-11.2327
効果的な	-11.2334
飛んで	-11.2336
勢	-11.2336
昨	-11.2339
海底	-11.234
換え	-11.2341
偉	-11.2348
▁europeu	-11.2348
▁funcionou	-11.2348
▁gordura	-11.2348
▁permitiu	-11.2348
▁religiosa	-11.2348
繊維	-11.2348
天然	-11.2349
資産	-11.2349
激しい	-11.2349
振動	-11.235
告げ	-11.235
運び	-11.235
知らず	-11.235
地域社会	-11.2354
▁introduzi	-11.2357
▁empenh	-11.2358
あげる	-11.2361
▁escada	-11.2365
▁Natal	-11.2366
よかった	-11.2367
多いのです	-11.2367
座り	-11.2372
マッ	-11.2372
▁Existem	-11.2374
倍も	-11.2375
No	-11.238
▁impedi	-11.2394
つあります	-11.2399
▁situa	-11.24
犯罪者	-11.2401
鎖	-11.2408
儀	-11.2408
染色体	-11.2409
▁brinquedo	-11.2409
▁imunitário	-11.2409
▁こんにち	-11.2409
▁Apple	-11.2409
▁codifica	-11.2409
▁inverno	-11.2409
▁poupança	-11.2409
継続	-11.2409
花粉	-11.241
見つかる	-11.241
形態	-11.2411
回避	-11.2411
侵入	-11.2411
切断	-11.2412
やり取り	-11.2413
ビジョン	-11.2413
帝国	-11.2415
▁tais	-11.2418
全然	-11.2418
▁enfrentamos	-11.2431
▁levaram	-11.2433
ように見えます	-11.2435
交わ	-11.2436
外れ	-11.2441
乗せ	-11.2442
みましょう	-11.2443
を失った	-11.2448
▁reagir	-11.2448
英	-11.245
▁caminhar	-11.2452
評	-11.2452
デス	-11.2454
こう言った	-11.2454
real	-11.2455
してもらう	-11.2456
自然な	-11.2458
幹	-11.2461
▁virar	-11.2461
ようとしています	-11.2463
▁expandir	-11.2467
危	-11.247
▁cardíaca	-11.2471
▁implementa	-11.2471
▁maravilha	-11.2471
▁microscópio	-11.2471
▁músico	-11.2471
▁preenche	-11.2471
劣	-11.2471
収穫	-11.2471
土壌	-11.2471
純粋	-11.2471
▁cópia	-11.2471
豊富	-11.2471
苦痛	-11.2472
パラ	-11.2472
▁cartão	-11.2473
哲学者	-11.2475
間違いなく	-11.2476
▁preferido	-11.2479
nós	-11.2482
▁explicação	-11.2485
であって	-11.2489
正確な	-11.2491
緑色	-11.2492
Olha	-11.2493
追加	-11.2496
で働く	-11.2497
▁ocorreu	-11.2502
lus	-11.2505
▁Existe	-11.2506
▁diária	-11.2508
尽	-11.2508
ラップ	-11.2508
残る	-11.2509
見た目	-11.2512
少なく	-11.2515
gri	-11.2519
見えません	-11.2521
幼	-11.2524
見せる	-11.2525
お話しした	-11.2526
に近い	-11.2532
て欲しい	-11.2532
奏	-11.2533
蔵	-11.2533
籍	-11.2533
+	-11.2533
–	-11.2533
▁expetativa	-11.2533
▁interface	-11.2533
▁jardim	-11.2533
▁tópico	-11.2533
にわたって	-11.2533
幼児	-11.2533
指摘	-11.2533
促進	-11.2533
結構	-11.2534
保証	-11.2534
持続可能な	-11.2534
▁transição	-11.2534
▁pão	-11.254
▁saltar	-11.254
ダル	-11.2541
数十年	-11.2541
資本	-11.2542
ニーズ	-11.2543
数学者	-11.2544
軍事	-11.2548
を思い出し	-11.2549
それ以上	-11.255
をもつ	-11.2551
始めたのです	-11.2553
気温	-11.2563
間違っている	-11.2563
知っていた	-11.2563
▁contribu	-11.2565
▁vêem	-11.257
▁Roma	-11.2571
もらった	-11.2572
を得た	-11.2572
溶	-11.2574
gráfico	-11.2577
広め	-11.2579
▁dançar	-11.2584
年もの間	-11.2586
抜き	-11.2592
ることにしました	-11.2594
概	-11.2595
セキュリティ	-11.2595
方程式	-11.2595
▁criminoso	-11.2595
▁explosão	-11.2595
▁extinção	-11.2595
▁mantêm	-11.2595
▁urbana	-11.2595
▁voltou	-11.2595
シカゴ	-11.2595
巧	-11.2595
従業員	-11.2595
豚	-11.2595
真剣に	-11.2595
▁louca	-11.2595
登録	-11.2596
▁tentando	-11.2596
戦闘	-11.2597
導き	-11.2598
空港	-11.2598
着陸	-11.2598
苦しんで	-11.2599
▁1990	-11.2599
通過	-11.2599
良いこと	-11.26
できず	-11.26
キス	-11.2601
Web	-11.2602
女子	-11.2603
▁neve	-11.2605
比較的	-11.2608
▁2004	-11.2608
我々に	-11.261
▁1950	-11.261
▁nascer	-11.2611
なければいけません	-11.2613
てもらえ	-11.2613
子供に	-11.2617
最中	-11.2619
外に出	-11.2619
▁coral	-11.2621
▁migra	-11.2623
▁plane	-11.2629
▁característica	-11.2635
▁ultrapassa	-11.2636
利点	-11.2639
といいます	-11.264
もたらし	-11.2642
を高め	-11.2647
Isso	-11.2647
▁senão	-11.2649
を目指し	-11.2649
▁tornando	-11.2654
ソーシャル	-11.2658
▁personaliz	-11.2658
リチャード	-11.2658
干	-11.2658
▁compreendi	-11.2658
▁escuridão	-11.2658
▁populações	-11.2658
繁殖	-11.2658
アウト	-11.2659
▁terror	-11.2659
生産性	-11.2659
照明	-11.266
だめ	-11.266
▁elemento	-11.2664
ホーム	-11.2665
▁privada	-11.2665
したんです	-11.2665
▁Estavam	-11.2668
解決する	-11.2673
例え	-11.2674
MS	-11.2675
言われる	-11.2676
申し上げ	-11.2678
帰り	-11.2679
▁percorrer	-11.2683
いかない	-11.2685
▁definir	-11.2686
取れ	-11.269
待つ	-11.2691
▁sofrem	-11.2694
▁reino	-11.2701
開け	-11.271
を伝える	-11.2713
騒	-11.2714
▁これほど	-11.2719
志	-11.2721
競	-11.2721
承	-11.2721
奴	-11.2722
▁golfinho	-11.2722
▁privilégio	-11.2722
甘	-11.2722
遮	-11.2722
▁video	-11.2722
箇所	-11.2722
▁vasos	-11.2722
競技	-11.2722
▁visível	-11.2722
▁ombro	-11.2722
▁afinal	-11.2723
ハウス	-11.2723
▁futura	-11.2725
伝達	-11.2727
▁3000	-11.2728
▁trabalhei	-11.2728
▁rir	-11.2729
思っていました	-11.2729
半数	-11.2732
シャル	-11.2734
を送る	-11.2737
かかった	-11.2738
▁preferi	-11.2739
戻り	-11.2741
神経科学	-11.2742
他にも	-11.275
▁vivi	-11.2752
多くの人々	-11.2756
以外に	-11.2758
▁mudaram	-11.2766
がいかに	-11.2767
成人	-11.2767
だったからです	-11.2769
95%	-11.2771
▁estivessem	-11.2772
カッ	-11.2773
透明	-11.2773
Espera	-11.2776
人にとって	-11.278
段	-11.2781
33	-11.2781
▁中には	-11.2782
続けます	-11.2785
如	-11.2785
浸	-11.2785
▁Chicago	-11.2785
▁Significa	-11.2785
▁aparentemente	-11.2785
▁ilegal	-11.2785
垂	-11.2785
▁resolvi	-11.2785
なかなか	-11.2785
▁densidade	-11.2785
選ばれ	-11.2785
▁coordena	-11.2786
発展途上国	-11.2786
注射	-11.2786
根拠	-11.2786
▁civis	-11.2786
に比べ	-11.2786
▁Aquela	-11.2787
絶望	-11.2787
▁mexer	-11.2788
避	-11.2789
ロウ	-11.2791
▁Vejamos	-11.2793
▁passamos	-11.2797
▁nucleares	-11.2798
確かめ	-11.28
大いに	-11.2804
弱い	-11.2818
▁imper	-11.2824
レゴ	-11.2828
▁envolvida	-11.2829
▁pede	-11.2829
▁あなた方	-11.283
cy	-11.2834
Ch	-11.2835
▁apaga	-11.2839
指数	-11.2841
nismo	-11.2843
欧	-11.2846
ゆっくり	-11.2847
を見ました	-11.2849
なきゃ	-11.2849
ジェンダー	-11.2849
アドバイス	-11.2849
冒	-11.2849
糖尿病	-11.2849
逸	-11.2849
▁Três	-11.2849
▁espetáculo	-11.2849
▁financiamento	-11.2849
▁incorpora	-11.2849
▁jornais	-11.2849
▁pulmões	-11.2849
あちこち	-11.2849
アパート	-11.2849
高齢者	-11.2849
▁Homem	-11.285
代謝	-11.285
儀式	-11.285
処方	-11.285
運ぶ	-11.2852
▁julgamento	-11.2854
▁distribuí	-11.2854
▁fixa	-11.2855
作りました	-11.2858
問いかけ	-11.2862
そうですね	-11.2863
低く	-11.2867
との関係	-11.287
経済成長	-11.2885
ドロ	-11.289
消化	-11.2892
▁determinar	-11.2892
どこでも	-11.2893
▁contribuir	-11.2895
燃え	-11.2896
した後	-11.2898
スロー	-11.29
不十分	-11.2905
仲	-11.2905
▁convenc	-11.2906
escolar	-11.2906
異なります	-11.2908
露	-11.2914
▁Anderson	-11.2914
▁diálogo	-11.2914
▁simetria	-11.2914
▁universitário	-11.2914
徹	-11.2914
ministro	-11.2914
▁piloto	-11.2914
意志	-11.2914
▁Conseguem	-11.2914
変えられる	-11.2915
研究室で	-11.2916
ânica	-11.2916
ゆっくりと	-11.2917
1000	-11.2917
▁nascimento	-11.2917
▁publicar	-11.2918
▁emoção	-11.2919
▁soma	-11.292
集合	-11.292
シャツ	-11.2921
njo	-11.2922
フォード	-11.2924
知能	-11.2924
▁marcha	-11.2925
建	-11.2926
第三	-11.2926
留め	-11.2932
ものがあります	-11.2935
▁preocupação	-11.294
考えていた	-11.2945
成長する	-11.2951
このように	-11.2955
▁cega	-11.2956
神話	-11.2967
▁leitor	-11.2968
ことが分かりました	-11.2969
オル	-11.297
▁dólar	-11.2973
ておく	-11.2974
▁fechar	-11.2974
令	-11.2978
災	-11.2978
雄	-11.2979
étrica	-11.2979
殻	-11.2979
署	-11.2979
▁Normalmente	-11.2979
▁britânico	-11.2979
▁confusão	-11.2979
▁divisão	-11.2979
▁estúdio	-11.2979
▁invisível	-11.2979
▁maçã	-11.2979
▁objectivo	-11.2979
壮大な	-11.2979
▁bolso	-11.2979
▁Basicamente	-11.2979
▁concebido	-11.2979
地震	-11.298
▁ferro	-11.298
居住	-11.298
一杯	-11.2981
検知	-11.2981
尽くし	-11.2983
資本主義	-11.2984
▁aceite	-11.2984
変異	-11.2984
シング	-11.2986
気に入って	-11.2988
▁alimento	-11.2989
ワイン	-11.299
▁Logo	-11.299
扱	-11.2992
学んだこと	-11.2992
ight	-11.2993
殺す	-11.2994
▁preso	-11.2995
▁houvesse	-11.2998
中毒	-11.2998
てもらい	-11.3
part	-11.3003
センチ	-11.301
▁morreram	-11.3017
そんなこと	-11.3017
太陽光	-11.3018
お伝え	-11.3023
項	-11.3024
パイ	-11.3025
神経細胞	-11.3025
越	-11.3025
▁pouca	-11.3026
▁astro	-11.3027
どのくらい	-11.303
を語る	-11.3031
▁grau	-11.3032
可能性がある	-11.3032
でもいい	-11.3033
▁especialista	-11.3033
▁votar	-11.3036
どちらか	-11.3037
歴史上	-11.3037
▁melhoria	-11.3038
開始	-11.3039
外部	-11.3041
体系	-11.3042
禁	-11.3044
枝	-11.3044
▁espetacular	-11.3044
▁filósofo	-11.3044
▁hidrogénio	-11.3044
▁ilusão	-11.3044
▁respondi	-11.3044
隅	-11.3044
契約	-11.3044
▁abertura	-11.3044
イエス	-11.3044
積極的	-11.3044
▁Pra	-11.3045
女王	-11.3047
▁2013	-11.3048
72	-11.305
Quem	-11.3051
▁deixaram	-11.3059
▁reduz	-11.3062
解読	-11.3063
観点から	-11.3068
繋がって	-11.3079
▁percebem	-11.3079
Cri	-11.3082
デイ	-11.3082
▁いま	-11.3082
ef	-11.3085
すべきこと	-11.3086
永遠に	-11.3093
ペース	-11.3099
▁percebe	-11.31
込みました	-11.3104
▁pá	-11.3106
といえば	-11.3107
言っていました	-11.3108
疲れ	-11.3108
▁Gal	-11.3109
奇	-11.311
▁Frank	-11.311
パフォーマンス	-11.311
▁celebra	-11.311
▁jamais	-11.311
に基づく	-11.311
に満ちた	-11.311
繰り返す	-11.311
▁gruta	-11.311
▁oficial	-11.311
貴重な	-11.311
▁férias	-11.311
▁ruído	-11.311
conforme	-11.311
関与	-11.311
暗闇	-11.311
値段	-11.311
辞書	-11.311
▁James	-11.3111
▁peito	-11.3111
▁discutir	-11.3112
Aprende	-11.3114
対称性	-11.3116
どうなるでしょう	-11.3119
▁conseguirem	-11.312
を意味する	-11.3124
昔から	-11.3127
救い	-11.3127
▁polar	-11.3129
道徳的	-11.3131
平均的な	-11.3132
▁25%	-11.3134
▁Inter	-11.3135
▁Sha	-11.3143
居場所	-11.3147
小型	-11.3148
高度	-11.3154
問題解決	-11.3154
クモ	-11.3156
▁noutro	-11.316
僕たち	-11.3167
頃には	-11.3171
後半	-11.3171
込みます	-11.3174
肢	-11.3175
典	-11.3176
祝	-11.3176
キャンペーン	-11.3176
債	-11.3176
▁Congresso	-11.3176
▁agrícola	-11.3176
▁cinema	-11.3176
▁curioso	-11.3176
▁intelectual	-11.3176
▁musical	-11.3176
▁violenta	-11.3176
オランダ	-11.3176
ファッション	-11.3176
ランダム	-11.3176
キリスト教	-11.3176
相互作用	-11.3177
▁ほら	-11.3177
▁documenta	-11.3177
命令	-11.3177
悲しい	-11.3177
家畜	-11.3178
▁pudermos	-11.3179
話している	-11.318
▁fins	-11.3183
▁conduz	-11.3184
▁ramo	-11.3187
笑い声	-11.3187
伝統的な	-11.3189
も同じです	-11.3191
▁lavar	-11.3191
▁desistir	-11.3193
ニコ	-11.3195
▁motores	-11.3196
▁venha	-11.3197
▁Tinham	-11.3203
ID	-11.3204
▁rast	-11.3206
ることもできます	-11.3209
▁pintar	-11.321
▁querido	-11.321
▁bati	-11.3218
心理学者	-11.3222
rgia	-11.3226
こうした	-11.3236
洋	-11.3237
を残し	-11.3239
Bretanha	-11.3243
▁francês	-11.3243
▁vulneráveis	-11.3243
封	-11.3243
▁manual	-11.3243
LED	-11.3243
▁exclu	-11.3243
▁amarelo	-11.3243
▁Volta	-11.3243
保健	-11.3243
▁recorre	-11.3243
▁confirma	-11.3243
▁famosa	-11.3244
修正	-11.3244
素早く	-11.3245
▁especificamente	-11.3245
スクール	-11.3246
▁favorito	-11.3247
▁jogadores	-11.3247
▁recuperação	-11.3247
▁ajude	-11.3248
▁lembrem	-11.3252
詰	-11.3253
遅く	-11.3253
頑張	-11.3257
▁associada	-11.3261
▁deitar	-11.3262
外交	-11.3263
quí	-11.3273
▁perna	-11.3273
▁baseia	-11.3275
▁Fazemo	-11.3277
お見せした	-11.3279
Sinto	-11.3279
囚	-11.328
接触	-11.328
▁recetor	-11.3287
▁caos	-11.329
ルート	-11.3298
鮮	-11.3305
労	-11.3309
摂	-11.331
奨	-11.331
MRI	-11.331
▁Darwin	-11.331
▁ingrediente	-11.331
▁úteis	-11.331
掴	-11.331
▁reforça	-11.331
▁fruto	-11.331
▁brincadeira	-11.331
▁nalgum	-11.331
▁naquilo	-11.331
兵器	-11.3311
▁toque	-11.3311
決まり	-11.3311
▁chá	-11.3312
骨格	-11.3313
を動かす	-11.3313
▁ciber	-11.3314
放送	-11.3314
▁alerta	-11.3315
亡くなりました	-11.3315
賢く	-11.3315
を表しています	-11.3316
引用	-11.3317
試合	-11.3318
取り組んでいる	-11.3318
疑い	-11.332
ローン	-11.3322
▁Lin	-11.3322
泣	-11.3322
を提供する	-11.3324
一言	-11.3327
前進	-11.3328
論理	-11.3332
▁separar	-11.3332
▁concord	-11.3333
年の間に	-11.3334
▁sobe	-11.3334
べく	-11.3335
▁tentado	-11.3336
の中から	-11.3339
▁copo	-11.334
するためです	-11.3342
わけではない	-11.3347
▁pediu	-11.3352
掘	-11.3357
元気	-11.3358
▁notável	-11.3359
▁salvo	-11.3362
▁aluno	-11.3364
目指す	-11.3366
▁letra	-11.3366
てみてください	-11.3368
辛	-11.3369
抱える	-11.337
絡	-11.3377
尾	-11.3377
変わってい	-11.3377
究	-11.3377
嘆	-11.3378
▁Podíamos	-11.3378
▁estrangeiro	-11.3378
▁radiação	-11.3378
おかしな	-11.3378
厄	-11.3378
▁sexuais	-11.3378
▁Direito	-11.3378
を使えば	-11.3378
登場人物	-11.3379
遊ぶ	-11.3379
強調	-11.338
▁justo	-11.338
▁interno	-11.3381
▁ambas	-11.3382
ものもあります	-11.3383
▁falso	-11.3384
▁regime	-11.3393
共通点	-11.3396
物理的	-11.3397
起きています	-11.3397
ネコ	-11.3399
ものではなく	-11.3402
Tenho	-11.3403
▁estabelecer	-11.3408
▁biólogo	-11.3409
▁decidiram	-11.3414
セー	-11.3417
基本的に	-11.3418
ていきました	-11.3418
喜んで	-11.3419
ごく	-11.3422
そろ	-11.3424
だったんです	-11.3425
▁Bang	-11.3428
出そうと	-11.3431
▁recurso	-11.3437
▁aproveitar	-11.3441
▁Precisa	-11.3441
こっち	-11.3445
ギャ	-11.3445
黙	-11.3445
近づく	-11.3446
▁alcance	-11.3446
▁livrar	-11.3446
▁tecnológica	-11.3446
揃	-11.3446
浮かび	-11.3446
▁criei	-11.3446
委員会	-11.3446
▁terríveis	-11.3446
記述	-11.3446
▁interroga	-11.3446
関節	-11.3446
▁cheira	-11.3446
▁abuso	-11.3446
▁Trans	-11.3447
始まって	-11.3447
軍隊	-11.3447
行っています	-11.3447
▁2016	-11.345
▁deixá	-11.345
▁sensores	-11.3451
理解できる	-11.3452
分散	-11.3454
不快	-11.3455
元々	-11.3456
▁dividir	-11.3456
漁業	-11.346
▁caminha	-11.3467
▁cobra	-11.347
▁recusa	-11.3471
▁tendem	-11.3472
▁Mont	-11.3473
HIV	-11.3474
Z	-11.3474
あるいは	-11.3478
▁abordar	-11.3479
Talk	-11.3479
さず	-11.348
ことが出来ます	-11.3483
教育を受け	-11.3483
mic	-11.3484
través	-11.3497
魅力的	-11.3498
ウル	-11.3502
▁achamos	-11.3507
あて	-11.3507
なかったからです	-11.3509
最新	-11.3511
劇的に	-11.3511
ミッション	-11.3514
拾	-11.3514
▁confronta	-11.3514
▁envelhece	-11.3514
▁espetro	-11.3514
▁publicidade	-11.3514
▁fisicamente	-11.3514
おもちゃ	-11.3514
訪問	-11.3514
▁mentais	-11.3514
▁impede	-11.3514
を引き起こす	-11.3514
四角	-11.3515
起源	-11.3517
▁Pedi	-11.3517
優れてい	-11.3518
▁consumidores	-11.3518
捉える	-11.3518
にもなります	-11.3518
▁cego	-11.3518
▁danifica	-11.3519
▁1970	-11.352
バンド	-11.352
▁marinha	-11.352
問う	-11.3522
▁giro	-11.3522
説明しましょう	-11.3522
もらって	-11.3526
万年前	-11.3528
排出量	-11.3538
代替	-11.3541
▁incon	-11.3548
レッド	-11.355
レンズ	-11.3561
を共有し	-11.3562
似ている	-11.3562
▁rouba	-11.3563
葬	-11.3583
コウモリ	-11.3583
祭	-11.3583
虚	-11.3583
▁descoberto	-11.3583
▁estufa	-11.3583
▁incluí	-11.3583
励	-11.3583
▁prejudica	-11.3583
▁terrestre	-11.3583
▁recém	-11.3583
野菜	-11.3583
最良の	-11.3583
権威	-11.3583
▁hiper	-11.3585
▁conservação	-11.3587
抽出	-11.3587
▁instruções	-11.3588
を想像し	-11.3589
9%	-11.3589
ミング	-11.359
辛い	-11.3592
▁nervo	-11.3594
各国	-11.3598
▁esquece	-11.3598
▁alimentação	-11.36
▁2050	-11.3601
会って	-11.3604
外側	-11.3608
▁Grã	-11.3609
とは違う	-11.3609
行きます	-11.361
associa	-11.361
ていき	-11.3614
▁organizado	-11.3615
バカ	-11.3616
スパイ	-11.3617
試してみ	-11.3626
関わる	-11.3633
迎え	-11.3636
障害者	-11.3638
ficámos	-11.3638
▁fechado	-11.3643
来ます	-11.3644
天体	-11.3646
サイクル	-11.3649
魔	-11.365
スペイン	-11.3651
却	-11.3652
拝	-11.3652
▁Israel	-11.3652
▁cromossoma	-11.3652
▁engraçado	-11.3652
▁fígado	-11.3652
▁glaciar	-11.3652
▁ângulo	-11.3652
▁óbvia	-11.3652
塔	-11.3652
符	-11.3652
▁setembro	-11.3652
▁atleta	-11.3652
▁emergência	-11.3652
sucedido	-11.3653
明るい	-11.3653
▁congela	-11.3653
と呼びます	-11.3653
▁terroristas	-11.3653
AR	-11.3654
パーティー	-11.3654
作っている	-11.3654
器具	-11.3654
嫌悪	-11.3655
ハイチ	-11.3658
▁atuais	-11.3659
▁engana	-11.3659
▁1960	-11.3661
▁elevada	-11.3661
ting	-11.3662
▁saem	-11.3664
廃棄物	-11.3665
不平等	-11.3665
▁Porém	-11.3665
通じ	-11.3669
▁lindo	-11.3672
与えてくれ	-11.3672
に注目し	-11.3674
塗	-11.3675
使えます	-11.3678
短期	-11.368
が必要なのです	-11.3681
笑顔	-11.3687
無意識	-11.369
を引き起こし	-11.3691
理性	-11.3693
▁aquece	-11.3694
魅力	-11.3697
puta	-11.3698
を守るため	-11.3702
してしまいます	-11.3703
衆	-11.3708
黄	-11.3714
従来	-11.3714
▁atacar	-11.3715
融	-11.372
強化	-11.372
つけられ	-11.3721
izações	-11.3722
▁Entretanto	-11.3722
▁crédito	-11.3722
▁havido	-11.3722
▁literatura	-11.3722
▁objecto	-11.3722
▁possivelmente	-11.3722
プラットフォーム	-11.3722
嵐	-11.3722
▁intensa	-11.3722
先進国	-11.3722
を防ぐ	-11.3723
幸い	-11.3724
▁multidão	-11.3724
ペル	-11.3724
▁algas	-11.3725
録音	-11.3725
▁condição	-11.3726
▁pago	-11.3726
吸い	-11.3728
▁alfa	-11.373
昨日	-11.3731
できるようになる	-11.3731
公平	-11.3733
公表	-11.3735
必要があるのです	-11.3737
考えてください	-11.374
少しずつ	-11.3741
奇妙	-11.3742
争い	-11.3743
サム	-11.3747
認められ	-11.3747
立った	-11.3748
▁introduzir	-11.3748
▁considerada	-11.3753
支払い	-11.3753
済み	-11.3757
話し合い	-11.3765
Nós	-11.3768
描	-11.377
ES	-11.377
▁chamava	-11.3782
deira	-11.3784
▁vítima	-11.3785
を元に	-11.3785
ハッ	-11.3785
ério	-11.3786
景	-11.3788
▁conclu	-11.379
昇	-11.3791
quando	-11.3791
腰	-11.3793
▁SIDA	-11.3793
▁companheiro	-11.3793
▁psicólogo	-11.3793
▁どうもありがとうございました	-11.3793
▁acredite	-11.3793
▁passámos	-11.3793
▁inclina	-11.3793
▁Atualmente	-11.3793
尊敬	-11.3793
マグロ	-11.3793
▁exibi	-11.3793
好み	-11.3793
▁galinha	-11.3793
珍しい	-11.3793
▁retrato	-11.3793
遥か	-11.3794
連携	-11.3794
passageiro	-11.3794
▁africana	-11.3794
確立	-11.3794
聖書	-11.3794
▁olhei	-11.3795
▁sorriso	-11.3796
収め	-11.3797
に至るまで	-11.3798
んだけど	-11.38
▁adaptar	-11.38
驚か	-11.38
変な	-11.3801
ジェット	-11.3804
▁regulament	-11.3805
▁operação	-11.3811
果て	-11.3814
という事	-11.3815
年半	-11.382
▁assegurar	-11.3823
一例	-11.3826
▁origina	-11.3828
ベイ	-11.3829
▁conservador	-11.3831
少しだけ	-11.3832
▁lente	-11.3836
待っている	-11.3837
患	-11.3839
▁questionar	-11.3844
出現	-11.3846
てもらう	-11.3847
中間	-11.3847
▁analisa	-11.3851
たび	-11.3851
マラ	-11.3853
増える	-11.3853
▁órgão	-11.3857
ってくれる	-11.3857
どうぞ	-11.3858
▁sensor	-11.3859
人がいる	-11.386
prime	-11.3861
▁vivia	-11.3862
ヴ	-11.3863
丘	-11.3864
▁cognitiva	-11.3864
フィードバック	-11.3864
にわたる	-11.3864
に囲まれ	-11.3864
置き換え	-11.3864
膨張	-11.3864
▁coberto	-11.3864
つながってい	-11.3864
▁esgota	-11.3864
まわり	-11.3864
後悔	-11.3866
▁mapea	-11.3867
トルコ	-11.3868
重視	-11.3869
問題があります	-11.3869
wn	-11.3869
▁diagrama	-11.3872
歩行	-11.3872
▁fator	-11.3873
▁casca	-11.3873
教えてくれました	-11.3874
▁Ven	-11.3881
都	-11.3884
市長	-11.3886
と思われる	-11.3888
▁iremos	-11.3888
を得ました	-11.3888
Meu	-11.389
▁Ben	-11.3894
▁desenvolvemos	-11.39
祈り	-11.3902
▁cabe	-11.3902
勢い	-11.3903
▁rever	-11.3904
つぶ	-11.3906
と比べて	-11.3906
▁agita	-11.3907
▁preferida	-11.3908
表れ	-11.3911
クラブ	-11.3916
賢	-11.3917
ぜ	-11.3917
人材	-11.3922
驚	-11.3923
科学者たち	-11.3926
科学的な	-11.3927
使われている	-11.3929
重い	-11.3932
コース	-11.3934
▁curiosa	-11.3935
縦	-11.3935
パスワード	-11.3935
フェイスブック	-11.3935
▁esqueleto	-11.3935
ツイート	-11.3935
ホワイト	-11.3935
酒	-11.3935
▁nuvens	-11.3935
▁inunda	-11.3935
▁Robert	-11.3935
▁anuncia	-11.3936
敬意	-11.3936
▁nutrientes	-11.3936
知らなかった	-11.3936
書かれた	-11.3936
大学院	-11.3937
ハッカー	-11.3941
海外	-11.3942
出てきます	-11.3942
解決法	-11.3944
示した	-11.3946
▁brilha	-11.3948
知りませんでした	-11.3953
▁capta	-11.3955
人間性	-11.3955
マップ	-11.3957
農場	-11.3958
▁verifica	-11.3959
▁apresentação	-11.3959
できている	-11.3962
▁queiram	-11.3963
になれ	-11.3968
成分	-11.3969
基	-11.3973
ものであり	-11.3974
▁naturalmente	-11.3974
学ぶこと	-11.3975
高速	-11.3976
ぶり	-11.3978
共有する	-11.3979
berg	-11.3989
▁passeio	-11.3994
▁torne	-11.3994
候補	-11.4002
▁calcular	-11.4003
▁infinito	-11.4007
▁potência	-11.4007
▁produtividade	-11.4007
▁promessa	-11.4007
根本的に	-11.4007
没	-11.4007
猿	-11.4007
児童	-11.4007
▁fotografa	-11.4007
▁recorde	-11.4007
韓国	-11.4007
驚異	-11.4008
ânico	-11.4008
毎週	-11.4009
絵画	-11.401
ていたら	-11.401
反対側	-11.401
陥	-11.4011
を変えること	-11.4012
発信	-11.4012
▁suposto	-11.4014
提示	-11.4015
▁ontem	-11.4015
▁transportar	-11.4016
▁empregados	-11.4016
ntámo	-11.4018
▁aspira	-11.4018
育ちました	-11.4019
▁promover	-11.402
▁destina	-11.402
必死	-11.4022
を生み	-11.4024
誰でも	-11.4025
形状	-11.4025
するのではなく	-11.4025
ウィン	-11.4025
▁cultivar	-11.4031
クマ	-11.4032
人形	-11.4033
▁planear	-11.4035
▁reações	-11.4035
▁produzido	-11.4038
▁limpar	-11.4039
▁limitada	-11.4052
900	-11.4053
CO	-11.4058
話すこと	-11.4059
▁diverti	-11.4061
バーグ	-11.4064
やりたい	-11.4066
創作	-11.4068
裁	-11.4069
Gosta	-11.4072
▁Seja	-11.4073
tric	-11.4076
納	-11.4079
▁Rússia	-11.408
▁capítulo	-11.408
▁diploma	-11.408
▁divulga	-11.408
▁dívida	-11.408
▁opiniões	-11.408
暑	-11.408
▁intenção	-11.408
▁esqueci	-11.408
▁sonhar	-11.408
▁usou	-11.408
負担	-11.4081
を生む	-11.4081
▁deuses	-11.4081
帰って	-11.4082
不明	-11.4082
前提	-11.4083
合意	-11.4085
北部	-11.4087
手順	-11.4087
協力して	-11.4092
▁vinho	-11.4096
不幸	-11.4096
生み出す	-11.4099
怖い	-11.41
▁Fale	-11.41
▁corredor	-11.4101
皮質	-11.4104
▁sugerir	-11.4104
訪れ	-11.4106
▁falou	-11.4106
喜	-11.4107
▁recebemos	-11.4113
▁digam	-11.4113
▁viviam	-11.4114
無知	-11.4116
は何でしょうか	-11.4119
ある程度	-11.4119
ョ	-11.4126
研究では	-11.4129
▁gritar	-11.413
fast	-11.4134
を集めて	-11.4138
生え	-11.4145
してみると	-11.4148
▁acontecimento	-11.415
▁raro	-11.415
馬鹿	-11.4152
トラウマ	-11.4153
京	-11.4153
括	-11.4153
縛	-11.4153
▁Alzheimer	-11.4153
▁disciplina	-11.4153
▁escondida	-11.4153
▁filosofia	-11.4153
▁incerteza	-11.4153
乾燥	-11.4153
尊厳	-11.4153
▁multiplica	-11.4153
関係者	-11.4153
叫び	-11.4153
Quanta	-11.4153
復活	-11.4154
損失	-11.4154
ピアノ	-11.4154
推定	-11.4154
問題を解決する	-11.4154
なくてはいけません	-11.4155
▁Instituto	-11.4155
▁conceber	-11.4155
▁pormenores	-11.4156
▁implicações	-11.4156
楽器	-11.4157
とても重要な	-11.4158
▁mentalidade	-11.4158
打ち上げ	-11.4159
つかない	-11.416
▁comece	-11.4161
▁anteriores	-11.4162
▁avaliação	-11.4162
老化	-11.4162
コピー	-11.4165
そば	-11.4165
教わ	-11.4166
有用	-11.4169
▁tio	-11.4169
詩人	-11.4171
水面	-11.4172
聴く	-11.4173
▁olhando	-11.4173
レーション	-11.4173
dó	-11.4175
なんとか	-11.4177
▁ajusta	-11.4179
カ国	-11.418
▁observação	-11.4186
▁estiveram	-11.4187
▁aborda	-11.419
▁valoriza	-11.4193
行われている	-11.4194
▁acelerar	-11.4195
遺	-11.4202
▁sugeri	-11.4202
地球上で	-11.4204
越し	-11.4204
tempo	-11.4206
▁somente	-11.4209
▁fique	-11.4209
巨	-11.4221
ベース	-11.4222
委	-11.4226
に応じて	-11.4226
扉	-11.4226
架	-11.4226
殿	-11.4226
潮	-11.4226
皿	-11.4226
▁agradável	-11.4226
▁eficácia	-11.4226
▁fáceis	-11.4226
▁informática	-11.4226
▁muscular	-11.4226
▁rurais	-11.4226
オレンジ	-11.4226
尻	-11.4226
跳	-11.4226
勇敢	-11.4226
▁resumi	-11.4226
麻酔	-11.4226
▁rodeia	-11.4227
▁define	-11.4227
▁Parti	-11.4227
視野	-11.4228
大規模	-11.4229
変動	-11.4231
レイプ	-11.4232
別れ	-11.4237
▁tentou	-11.4242
▁iniciativa	-11.4247
週間後	-11.4249
ることはできません	-11.425
囚人	-11.4259
ないでください	-11.426
ノート	-11.426
Há	-11.4262
▁escapar	-11.4263
を含め	-11.427
▁nacionais	-11.4271
利用できる	-11.4275
▁deteta	-11.4277
一切	-11.428
▁virem	-11.4282
38	-11.4288
ich	-11.4289
魅力的な	-11.4292
▁direto	-11.4296
▁praticar	-11.4297
認める	-11.4298
砕	-11.43
▁ambientais	-11.43
▁funcione	-11.43
アマゾン	-11.43
フランク	-11.43
▁evidência	-11.43
掲載	-11.43
混ぜ	-11.4301
意思決定	-11.4301
▁arrasta	-11.4301
▁selvagem	-11.4301
計測	-11.4301
衛生	-11.4301
排除	-11.4301
ポケット	-11.4302
救急	-11.4302
▁atrair	-11.4303
▁decide	-11.4303
だれ	-11.4305
▁mentir	-11.4305
海水	-11.4306
近代	-11.4306
37	-11.4306
▁だからこそ	-11.4309
を動かし	-11.4312
レーザー	-11.4313
何千もの	-11.4314
政治的な	-11.4314
機構	-11.4318
送金	-11.4318
けどね	-11.4319
安く	-11.4319
ónia	-11.4322
▁solares	-11.4323
誕生日	-11.4324
もう一方	-11.4325
を見れば	-11.4325
の中にある	-11.4326
覚えている	-11.4328
▁pessoalmente	-11.4334
を用意し	-11.434
立てる	-11.4341
ji	-11.4341
firm	-11.4342
ネル	-11.4343
働いている	-11.4343
▁mergulho	-11.4346
どこへ	-11.4347
chip	-11.4354
出発	-11.4367
育ち	-11.4369
fur	-11.4369
部隊	-11.4373
▁nutri	-11.4374
訊	-11.4375
▁chocolate	-11.4375
▁dicionário	-11.4375
▁fantasma	-11.4375
▁regenera	-11.4375
テキスト	-11.4375
▁Michael	-11.4375
▁isolado	-11.4375
▁lucrativo	-11.4375
▁Passei	-11.4375
▁milagre	-11.4375
▁obtive	-11.4375
名誉	-11.4375
閉じ込め	-11.4375
▁adolescente	-11.4375
▁queixa	-11.4376
取得	-11.4377
▁navegar	-11.4377
ェ	-11.4378
▁magoa	-11.4379
職員	-11.4379
活発	-11.438
▁senhores	-11.4383
性格	-11.439
こう言います	-11.4392
大型	-11.4394
不要	-11.4397
▁recuar	-11.4399
特殊な	-11.4402
▁saibam	-11.4414
▁Querem	-11.4415
▁2001	-11.4417
なかったので	-11.4422
nunc	-11.4425
▁どちらも	-11.4428
▁pergunto	-11.4436
▁120	-11.444
▁enganado	-11.4443
濃	-11.4447
zz	-11.4448
Nenhum	-11.4449
援	-11.445
▁acessível	-11.445
▁chineses	-11.445
▁colapso	-11.445
▁intestino	-11.445
▁múltipla	-11.445
▁tragédia	-11.445
▁trânsito	-11.445
コンクリート	-11.445
タトゥー	-11.445
栽培	-11.445
添	-11.445
陣	-11.445
▁examina	-11.445
▁exceção	-11.445
目覚め	-11.445
▁essência	-11.445
▁perfura	-11.445
▁ajudá	-11.445
子孫	-11.4451
American	-11.4451
仮定	-11.4452
▁SMS	-11.4453
▁Nobel	-11.4455
地球温暖化	-11.4456
何よりも	-11.4457
Para	-11.4461
▁Chamo	-11.4462
▁Han	-11.4466
公正	-11.4469
ってしまった	-11.447
と呼ばれるもの	-11.4473
心理学	-11.4476
▁evoluir	-11.4483
増やし	-11.4489
▁excita	-11.4495
宇宙船	-11.4496
与えられた	-11.4498
▁fuga	-11.4501
任せ	-11.4506
狭	-11.4511
ざる	-11.4514
論者	-11.4514
▁tento	-11.4523
河	-11.4525
織	-11.4525
▁infinita	-11.4526
覗	-11.4526
谷	-11.4526
▁aeroporto	-11.4526
▁grávida	-11.4526
ボストン	-11.4526
捕まえ	-11.4526
休暇	-11.4526
培養	-11.4526
Mãe	-11.4526
イスラム教	-11.4526
▁grego	-11.4527
美術	-11.4527
パネル	-11.4528
▁vizinho	-11.4529
データベース	-11.453
▁sentada	-11.4532
▁recordar	-11.4534
我が国	-11.4534
直線	-11.4537
と呼ばれています	-11.4537
わせる	-11.4544
よくある	-11.4544
数か月	-11.4545
▁Pela	-11.4548
考えること	-11.4555
▁acerta	-11.4556
てみよう	-11.4556
を意味し	-11.4558
Este	-11.4567
▁deriva	-11.4569
頂き	-11.4574
世界的な	-11.4576
双	-11.4587
を救う	-11.4591
踏	-11.4595
▁estima	-11.4597
▁しかしそれ	-11.4597
▁Nigéria	-11.4602
▁aborrecido	-11.4602
彩	-11.4602
忙	-11.4602
旧	-11.4602
▁óleo	-11.4602
脊髄	-11.4602
▁reflete	-11.4602
▁compensa	-11.4602
▁planeamento	-11.4603
道のり	-11.4603
給料	-11.4603
賛成	-11.4603
選ぶ	-11.4604
優しい	-11.4605
行われる	-11.4611
発光	-11.4611
▁Alex	-11.4612
本能	-11.4616
狭い	-11.4616
▁Martin	-11.4621
と答えました	-11.4623
▁roubar	-11.4624
獲得	-11.4624
▁Dizem	-11.4645
必要とされ	-11.4654
▁substituí	-11.4655
▁fluido	-11.4669
イアン	-11.4674
▁evita	-11.4676
脈	-11.4676
挑	-11.4678
媒	-11.4679
館	-11.4679
遭	-11.4679
Wikipedia	-11.4679
▁automaticamente	-11.4679
▁enfermeira	-11.4679
▁extraterrestre	-11.4679
▁adulta	-11.4679
クラウド	-11.4679
宇宙飛行士	-11.4679
忠	-11.4679
素晴らしく	-11.4679
▁duplica	-11.4679
をとる	-11.4679
治験	-11.4679
遭遇	-11.4679
▁liceu	-11.4679
▁génio	-11.4679
尊重	-11.4679
見事な	-11.468
便利	-11.468
判明し	-11.468
神秘	-11.4681
必要性	-11.4682
▁interações	-11.4684
▁processamento	-11.4684
また別の	-11.4685
▁reator	-11.4686
ft	-11.4687
精度	-11.4688
▁localização	-11.4688
意外	-11.469
▁anteriormente	-11.4692
締め	-11.4693
意思	-11.4695
てはいけません	-11.4696
広場	-11.4706
▁perdeu	-11.4711
▁assumi	-11.4711
▁recolhe	-11.4715
▁regressa	-11.4718
適切	-11.472
残った	-11.4728
グラス	-11.4729
速い	-11.473
静かに	-11.4733
▁substitu	-11.4733
▁ví	-11.4734
問題について	-11.4738
へ行き	-11.474
致	-11.4744
に従って	-11.4753
▁reconheci	-11.4755
闇	-11.4756
泥	-11.4757
▁adequado	-11.4757
▁centímetro	-11.4757
▁invisíveis	-11.4757
▁reconstruir	-11.4757
ストリート	-11.4757
湿	-11.4757
▁portátil	-11.4757
▁ぜひ	-11.4757
永久	-11.4757
▁evidente	-11.4757
▁visuais	-11.4757
臨床試験	-11.4757
枠組み	-11.4757
直面している	-11.4757
深海	-11.4757
▁condiciona	-11.4757
取材	-11.4758
サポート	-11.4759
対抗	-11.4759
▁sólido	-11.476
リサイクル	-11.476
▁lançamento	-11.4761
じっと	-11.4763
▁graça	-11.4764
先住民	-11.4765
▁foco	-11.4765
▁orientação	-11.4772
▁concentração	-11.4773
▁pesado	-11.4776
上がった	-11.4778
▁Bra	-11.4782
▁aperta	-11.4787
と思っていた	-11.4789
▁geri	-11.4791
とらえ	-11.4793
ルーム	-11.4805
買った	-11.4807
影響を与える	-11.481
再利用	-11.481
▁precisamente	-11.4813
強力	-11.4814
してほしい	-11.4823
スタイル	-11.483
港	-11.4831
▁insta	-11.4833
慮	-11.4834
乏	-11.4835
▁doutoramento	-11.4835
▁envelhecimento	-11.4835
▁escravatura	-11.4835
▁informático	-11.4835
▁lâmpada	-11.4835
増殖	-11.4835
教科書	-11.4835
▁Boston	-11.4835
本質的に	-11.4835
サンゴ礁	-11.4835
ビュー	-11.4835
宣伝	-11.4835
▁estacionamento	-11.4835
▁discut	-11.4835
▁Gosto	-11.4835
▁equação	-11.4835
宣言	-11.4835
タイミング	-11.4835
設備	-11.4835
任務	-11.4836
天才	-11.4836
習得	-11.4836
気付き	-11.4836
上司	-11.4839
頭痛	-11.4839
▁africano	-11.4843
発症	-11.4843
行ける	-11.4844
思っていた	-11.4846
99%	-11.4846
大衆	-11.485
▁PM	-11.4858
付いた	-11.4861
シート	-11.4861
お陰で	-11.4864
何なのか	-11.4865
走る	-11.4865
価値がある	-11.4866
▁Th	-11.4866
ファイル	-11.487
お話しする	-11.4878
起きていること	-11.4884
▁それによって	-11.4885
ことはできない	-11.4885
ママ	-11.4894
数多く	-11.4904
コーチ	-11.4906
▁teto	-11.4908
ってしまいます	-11.4912
▁impression	-11.4913
怪	-11.4913
妙	-11.4913
▁Revolução	-11.4913
▁assistência	-11.4913
▁distúrbio	-11.4913
▁licença	-11.4913
▁tubarão	-11.4913
▁violento	-11.4913
ぺ	-11.4913
振る舞い	-11.4913
歪	-11.4913
浮かぶ	-11.4913
熱帯雨林	-11.4913
紫外線	-11.4913
▁adivinh	-11.4913
▁Centro	-11.4913
慈悲	-11.4913
▁filtro	-11.4913
統治	-11.4914
▁Museu	-11.4914
▁ódio	-11.4914
構想	-11.4914
▁previsão	-11.4915
▁degrada	-11.4915
送信	-11.4916
▁palma	-11.4917
▁assustadora	-11.4919
▁gama	-11.4921
年ほど前	-11.4922
▁químico	-11.4923
呼ぶ	-11.4929
つだけ	-11.493
正解	-11.4931
sustentabilidade	-11.4932
全国	-11.4935
ウェル	-11.494
訳ではありません	-11.4952
▁conduzi	-11.4956
osamente	-11.4956
▁alcanç	-11.4959
▁fascina	-11.4959
Vai	-11.496
▁Joe	-11.4964
個性	-11.4967
▁gota	-11.4969
▁convidado	-11.4971
数百万	-11.4973
利用者	-11.4976
になりたい	-11.4982
栄	-11.499
条	-11.4991
腐	-11.4993
▁chapéu	-11.4993
▁comerciais	-11.4993
▁fotógrafo	-11.4993
▁intriga	-11.4993
▁obesidade	-11.4993
マイケル	-11.4993
誓	-11.4993
▁Aprendi	-11.4993
▁departamento	-11.4993
傍	-11.4993
▁pausa	-11.4993
▁parceria	-11.4993
化石燃料	-11.4993
夕食	-11.4994
財産	-11.4994
▁ácido	-11.4994
▁Quais	-11.4995
ボトル	-11.4996
演じ	-11.4997
取り組んでいます	-11.4997
と同じくらい	-11.4998
▁instalações	-11.4999
▁Ocidental	-11.5002
受容体	-11.5005
▁Desta	-11.5007
ネイ	-11.5007
だとしたら	-11.5013
誤った	-11.5014
▁2003	-11.5017
背中	-11.5019
▁vela	-11.502
高度な	-11.5022
▁arco	-11.5023
▁Pensamos	-11.5023
Então	-11.5034
亡くなった	-11.5037
▁gran	-11.5041
の一員	-11.5046
聞こえます	-11.5048
ライフ	-11.5053
▁rara	-11.5057
器官	-11.5059
叫	-11.5072
▁Paquistão	-11.5073
▁blogue	-11.5073
▁criminal	-11.5073
▁diabetes	-11.5073
▁dignidade	-11.5073
▁extensão	-11.5073
▁minúsculo	-11.5073
▁morcego	-11.5073
▁painéis	-11.5073
▁pirâmide	-11.5073
▁religiões	-11.5073
▁robótica	-11.5073
▁tribunal	-11.5073
鼓	-11.5073
▁distinguir	-11.5073
▁もしかしたら	-11.5073
▁Creio	-11.5073
影響を及ぼし	-11.5073
▁amplia	-11.5073
掲げ	-11.5073
▁rural	-11.5073
logicamente	-11.5074
商業	-11.5074
模様	-11.5074
保持	-11.5074
問題なのです	-11.5074
水準	-11.5074
発掘	-11.5075
通貨	-11.5075
にわたり	-11.5075
想定	-11.5076
シュー	-11.5079
プリント	-11.5079
繋がる	-11.5084
▁componente	-11.5084
並んで	-11.5085
死者	-11.5086
リンク	-11.5089
下がり	-11.5089
▁criadores	-11.5094
力強い	-11.5096
▁colocado	-11.5098
▁mini	-11.5098
▁cresceu	-11.5099
▁utilização	-11.5101
改め	-11.5101
を助ける	-11.5107
ようとしている	-11.5108
慢	-11.5121
▁Big	-11.5122
しようとしています	-11.5125
読め	-11.5128
Quero	-11.5131
▁parto	-11.5134
お見せする	-11.5136
見てください	-11.5141
▁vestido	-11.5144
SF	-11.5153
途上国	-11.5153
揚	-11.5153
瓶	-11.5153
Á	-11.5153
▁Microsoft	-11.5153
▁Número	-11.5153
▁corrupção	-11.5153
▁faixa	-11.5153
▁feminina	-11.5153
▁pinguins	-11.5153
▁precisávamos	-11.5153
卓	-11.5153
棚	-11.5153
カップル	-11.5153
幕	-11.5153
ヒュー	-11.5153
捜査	-11.5153
▁diariamente	-11.5153
貯蔵	-11.5154
天井	-11.5154
拒絶	-11.5154
▁elegante	-11.5154
資料	-11.5154
仕掛け	-11.5154
調和	-11.5154
記号	-11.5154
▁grão	-11.5155
▁concluir	-11.5155
作れます	-11.5157
社交	-11.5157
お話ししましょう	-11.5158
▁poeta	-11.5158
▁continuou	-11.5158
きっと	-11.5159
実験室	-11.516
▁fraco	-11.5161
聞	-11.5164
用いられ	-11.5164
▁engenheiro	-11.5166
されており	-11.5167
感じています	-11.5167
らしさ	-11.5168
透明性	-11.5169
▁riso	-11.5174
何とか	-11.518
▁funcionamento	-11.5181
ることが出来	-11.5185
ことがわかりました	-11.5187
シェア	-11.5191
応え	-11.5195
ッター	-11.5197
お腹	-11.5197
▁多くの人は	-11.5207
▁continuava	-11.5211
数学的	-11.5213
頼り	-11.5216
借り	-11.5217
座っている	-11.5222
íssimo	-11.5224
▁distribui	-11.5227
金額	-11.5229
挙	-11.5233
範	-11.5234
芸	-11.5234
▁cobertura	-11.5235
▁crânio	-11.5235
▁loucura	-11.5235
▁masculino	-11.5235
▁recomenda	-11.5235
アラビア語	-11.5235
ベトナム	-11.5235
冠	-11.5235
凝	-11.5235
噴	-11.5235
▁União	-11.5235
▁território	-11.5235
▁transparente	-11.5235
オリンピック	-11.5235
敷	-11.5235
▁vertical	-11.5235
▁afecta	-11.5235
▁transferi	-11.5235
▁retorno	-11.5235
及ぼ	-11.5235
トレーニング	-11.5235
叔父	-11.5235
▁vencedor	-11.5235
▁vencer	-11.5235
チュー	-11.5235
トンネル	-11.5235
連鎖	-11.5236
周期	-11.5236
子宮	-11.5236
なくてはならない	-11.5237
当たる	-11.5237
▁ferida	-11.5237
ゴー	-11.5238
▁vitória	-11.5239
バブル	-11.5241
▁parasita	-11.5242
わかっています	-11.5242
▁そうやって	-11.5247
▁convencido	-11.5247
という事実	-11.5248
裁判所	-11.5249
▁afirmação	-11.5251
長生き	-11.5253
形成され	-11.5253
酷い	-11.5254
モール	-11.5257
地表	-11.5261
ザン	-11.5263
▁haveria	-11.527
しまって	-11.5278
▁Rio	-11.5281
デル	-11.5283
奪われ	-11.5288
都会	-11.5291
化合物	-11.5303
▁capita	-11.531
録	-11.5313
模	-11.5313
識	-11.5313
refiro	-11.5313
到	-11.5313
粒	-11.5315
藻	-11.5316
酔	-11.5316
▁Universo	-11.5317
▁espanhol	-11.5317
▁ténis	-11.5317
メカニズム	-11.5317
丁	-11.5317
尿	-11.5317
裸	-11.5317
膝	-11.5317
アダム	-11.5317
不可欠な	-11.5317
拒否	-11.5317
とは限りません	-11.5317
邪魔	-11.5317
寛容	-11.5317
伸ばし	-11.5317
学べる	-11.5317
▁secreta	-11.5317
午後	-11.5318
▁abriu	-11.5319
面倒	-11.5319
ジェイ	-11.5319
格好	-11.5319
やってきて	-11.532
▁apanhado	-11.532
レコード	-11.5323
表す	-11.5326
目の前に	-11.533
▁cliente	-11.5332
撮影した	-11.5334
▁motivação	-11.5335
▁recebeu	-11.5343
を可能にし	-11.5345
▁culturais	-11.5345
何が起こる	-11.5346
どうにか	-11.5348
も含め	-11.5353
タウン	-11.5355
ビール	-11.5357
流れる	-11.5361
歩み	-11.5364
に依存し	-11.5366
Pai	-11.5377
買え	-11.5378
▁constitui	-11.538
designer	-11.5381
▁dormi	-11.5394
釈	-11.5398
威	-11.5399
▁honesta	-11.5399
▁Lembrem	-11.5399
▁centrais	-11.5399
▁chinesa	-11.5399
▁lágrimas	-11.5399
甲	-11.5399
随	-11.5399
▁contêm	-11.5399
オバマ	-11.5399
エボラ	-11.5399
伐採	-11.5399
肝臓	-11.5399
▁infeção	-11.5399
▁Torna	-11.5399
▁intimida	-11.5399
▁Egito	-11.5399
幻覚	-11.54
▁lenta	-11.54
▁denuncia	-11.54
▁continue	-11.54
▁passear	-11.54
▁captura	-11.54
汚職	-11.54
マーケット	-11.5401
▁reproduzir	-11.5401
手を挙げ	-11.5401
精神疾患	-11.5402
▁receio	-11.5403
▁raramente	-11.5407
▁comprimido	-11.5407
高まり	-11.5409
のほとんどは	-11.541
行進	-11.5411
▁fugi	-11.5411
▁populares	-11.5413
Desculpe	-11.5413
知っていました	-11.5415
50%	-11.5416
ことができません	-11.5418
あえ	-11.542
一種の	-11.5421
76	-11.5422
踊り	-11.5423
させようと	-11.5427
を払って	-11.5427
ようになったのです	-11.5428
使命	-11.5428
愚か	-11.543
▁aviso	-11.5436
▁apareceram	-11.544
▁perderam	-11.5448
始めています	-11.5455
▁pró	-11.5459
▁4000	-11.5459
必	-11.5463
ガーナ	-11.5466
役目	-11.5468
▁defende	-11.5473
公衆衛生	-11.5483
▁estímulo	-11.5483
▁vizinha	-11.5483
シナリオ	-11.5483
漏	-11.5483
貝	-11.5483
▁desencade	-11.5483
▁esforça	-11.5483
▁orgânico	-11.5483
▁reputação	-11.5483
▁既存の	-11.5483
▁painel	-11.5483
腐敗	-11.5483
▁divide	-11.5483
賃金	-11.5483
▁racional	-11.5483
▁hotel	-11.5484
▁achei	-11.5484
保護区	-11.5484
▁rainha	-11.5484
▁mantive	-11.5484
▁transmissão	-11.5484
断片	-11.5486
▁favorita	-11.5488
動いている	-11.5488
精子	-11.5491
▁estimativa	-11.5492
▁Basta	-11.5493
ベスト	-11.5497
▁誰にも	-11.5499
▁Dra	-11.5501
▁diário	-11.5511
▁父が	-11.5513
ドラマ	-11.5514
▁より大きな	-11.5517
▁ouvem	-11.5522
プレイ	-11.5525
発電所	-11.5532
経って	-11.5532
▁Fomo	-11.5535
受け取る	-11.5536
ておきます	-11.5538
複雑さ	-11.5545
生徒たち	-11.5551
翌	-11.5555
▁direta	-11.556
▁investigador	-11.5561
▁implica	-11.5563
談	-11.5566
票	-11.5566
スマート	-11.5567
エチオピア	-11.5567
心臓発作	-11.5567
稀	-11.5567
▁Charles	-11.5567
▁Presidente	-11.5567
▁Street	-11.5567
▁acontecia	-11.5567
▁inesperada	-11.5567
▁legisla	-11.5567
▁transformou	-11.5567
アルツハイマー病	-11.5567
浄	-11.5567
絆	-11.5567
塩基	-11.5567
▁coleção	-11.5567
ギャング	-11.5567
欠陥	-11.5567
思えます	-11.5567
を築く	-11.5567
ビーチ	-11.5568
記念	-11.5568
基金	-11.5568
都合	-11.5568
合計	-11.5568
首相	-11.5569
▁capitalismo	-11.5569
▁vapor	-11.5569
日常生活	-11.5569
各地	-11.557
とはいえ	-11.557
ヘッド	-11.557
ロープ	-11.5573
回収	-11.5574
話しかけ	-11.5578
▁atraí	-11.5578
▁corporal	-11.558
▁Ilha	-11.5582
▁Disseram	-11.5582
▁avançada	-11.5583
▁Conseguimos	-11.5584
▁benefício	-11.5587
メガ	-11.5588
を使うこと	-11.5592
を越えて	-11.5593
込	-11.5595
▁brinca	-11.5598
飲んで	-11.5598
2、3	-11.56
に比べて	-11.5609
観点	-11.5619
ヘル	-11.5624
代わり	-11.5627
を育てる	-11.5628
事が出来	-11.5634
ハード	-11.5643
削	-11.565
雷	-11.5651
▁Suécia	-11.5651
▁argumenta	-11.5651
▁escondido	-11.5651
▁espaciais	-11.5651
トランプ	-11.5651
ユーモア	-11.5651
絶えず	-11.5651
骸	-11.5651
麗	-11.5651
▁suicida	-11.5651
▁aproximadamente	-11.5651
を遂げ	-11.5651
▁Haiti	-11.5651
▁fruta	-11.5651
胎児	-11.5652
▁protesto	-11.5653
果たす	-11.5654
殺害	-11.5655
控え	-11.5656
ウォール	-11.5661
▁operações	-11.5663
▁percebeu	-11.5671
▁Mary	-11.5673
▁pronta	-11.5677
ssociação	-11.5679
▁tende	-11.568
▁vota	-11.5682
を高める	-11.5691
▁regresso	-11.5692
含まれる	-11.5702
直後	-11.5709
促	-11.5709
▁Consegui	-11.5719
▁contente	-11.5731
▁adorava	-11.5732
航	-11.5733
1,000	-11.5737
潰	-11.5737
▁Saúde	-11.5737
▁astronauta	-11.5737
▁cerveja	-11.5737
▁confuso	-11.5737
▁dígito	-11.5737
▁espiritual	-11.5737
▁horizonte	-11.5737
▁indícios	-11.5737
▁ocidentais	-11.5737
▁perspectiva	-11.5737
プログラミング	-11.5737
コロニー	-11.5737
事務所	-11.5737
謀	-11.5737
▁otimista	-11.5737
▁pôs	-11.5737
▁celular	-11.5737
振り返って	-11.5737
スマートフォン	-11.5737
▁esposa	-11.5737
ダウンロード	-11.5737
常識	-11.5737
余裕	-11.5737
▁pânico	-11.5737
▁entidade	-11.5738
遺産	-11.5738
泳ぎ	-11.5738
証言	-11.5739
▁surto	-11.5739
▁predadores	-11.574
▁leste	-11.5741
▁limitações	-11.5744
を愛し	-11.5744
好む	-11.5744
物理的な	-11.5745
わけではなく	-11.5745
▁bebida	-11.5747
アメリカ合衆国	-11.5747
に値する	-11.5747
クリスマス	-11.5749
▁usavam	-11.5749
プール	-11.575
エリア	-11.5753
▁mergulhar	-11.5753
導く	-11.5758
▁adulto	-11.576
を持つこと	-11.5761
▁Arte	-11.5766
信じられ	-11.5768
▁Real	-11.5768
慢性	-11.5771
若い女性	-11.5772
▁dominante	-11.5782
何もない	-11.5808
何度	-11.5813
▁coopera	-11.5815
対称	-11.5816
律	-11.5818
彫	-11.5823
塞	-11.5823
爪	-11.5823
▁Thomas	-11.5823
▁clássico	-11.5823
▁conforto	-11.5823
▁profissão	-11.5823
▁provém	-11.5823
楽しむ	-11.5823
マジック	-11.5823
▁Cerca	-11.5823
▁Síria	-11.5823
▁interromp	-11.5823
結晶	-11.5823
▁cirurgião	-11.5823
執筆	-11.5823
▁Pouco	-11.5823
RNA	-11.5823
副作用	-11.5823
ちょうど	-11.5823
▁intervalo	-11.5823
▁amarela	-11.5824
幾つか	-11.5824
処置	-11.5824
Google	-11.5824
▁dirige	-11.5824
▁menino	-11.5825
未満	-11.5825
身につけ	-11.5825
二度と	-11.5826
異なった	-11.5826
調理	-11.5826
親友	-11.5827
ポスター	-11.5829
させられる	-11.5832
▁extrair	-11.5832
開いた	-11.5837
▁firme	-11.5838
小規模	-11.5839
▁1500	-11.5843
誰にでも	-11.5845
▁estatística	-11.5847
▁bactéria	-11.5848
震え	-11.5851
▁existentes	-11.5852
歳のとき	-11.5854
訪れた	-11.5859
受け取り	-11.5861
▁My	-11.5867
訪れる	-11.5867
革新的な	-11.5868
▁consistente	-11.5869
誤り	-11.587
問題がある	-11.5876
を目にし	-11.589
ことがわかります	-11.5893
▁arranja	-11.5897
について考える	-11.59
吹	-11.5906
老人	-11.5907
勝つ	-11.5909
枠	-11.591
姉	-11.591
遂	-11.591
▁humilh	-11.591
テキサス	-11.591
マーケティング	-11.591
矢	-11.591
▁Central	-11.591
▁Lembram	-11.591
▁automóvel	-11.591
▁eficiência	-11.591
▁estômago	-11.591
▁gravidez	-11.591
▁injustiça	-11.591
▁instinto	-11.591
▁preocupe	-11.591
太平洋	-11.591
▁demasiada	-11.591
▁Obama	-11.591
取り除く	-11.591
Acredita	-11.591
慎重	-11.591
姉妹	-11.591
▁tanque	-11.591
浴び	-11.591
売春	-11.5911
除去	-11.5912
▁Sabia	-11.5912
サッカー	-11.5912
模型	-11.5913
▁Mulher	-11.5914
ボックス	-11.5916
楽しく	-11.5916
元素	-11.5916
▁nervosa	-11.5916
候補者	-11.5916
小惑星	-11.5917
一人一人	-11.5918
▁passagem	-11.592
を紹介します	-11.5923
手に入る	-11.5926
蓄	-11.593
2000	-11.5933
Onde	-11.5934
せられ	-11.5938
contra	-11.5939
に至る	-11.5939
声を上げ	-11.5944
まずい	-11.5948
闘い	-11.5949
americano	-11.5951
心理	-11.5963
に加えて	-11.5972
fundamentalmente	-11.5981
面白	-11.5987
のあり方	-11.5987
働きかけ	-11.5989
スラム	-11.5992
取り戻	-11.5992
▁pica	-11.5997
スタジオ	-11.5998
悲惨な	-11.5998
預	-11.5998
▁eletrónico	-11.5998
▁expressões	-11.5998
▁improvisa	-11.5998
シミュレーション	-11.5998
綿	-11.5998
豪	-11.5998
鋭	-11.5998
▁barulho	-11.5998
▁imigrantes	-11.5998
▁sensíveis	-11.5998
Trabalha	-11.5998
▁àquele	-11.5998
▁ausência	-11.5998
最善の	-11.5998
▁netos	-11.6
保全	-11.6001
▁atraente	-11.6002
▁justifica	-11.6002
限られた	-11.6003
▁correio	-11.6006
返事	-11.601
パニック	-11.601
翌日	-11.601
こういった	-11.6013
上位	-11.6013
続けている	-11.6013
古く	-11.6016
▁preocupações	-11.6017
洗い	-11.6022
倒れ	-11.6023
することもできます	-11.6025
路上	-11.6034
てもいい	-11.6038
伝えたい	-11.6045
いただきたい	-11.6047
を観察し	-11.6057
てみる	-11.6061
取られ	-11.6062
遺伝的	-11.6066
集めた	-11.6073
海面	-11.6079
個人的に	-11.608
大切なこと	-11.6082
▁propaga	-11.6086
汗	-11.6086
puzzle	-11.6086
▁imediato	-11.6086
机	-11.6086
▁consulta	-11.6086
▁tecnológico	-11.6086
お父さん	-11.6086
極端な	-11.6086
銘	-11.6086
▁engenho	-11.6086
▁inúmer	-11.6086
▁sequencia	-11.6086
身近な	-11.6086
▁quarta	-11.6086
手がかり	-11.6086
▁Texas	-11.6086
▁russo	-11.6086
臨床	-11.6086
考案	-11.6086
ギャップ	-11.6087
▁matriz	-11.6087
識別	-11.6087
変わらない	-11.6087
光栄	-11.6089
リソース	-11.609
▁apaixonado	-11.609
自律	-11.609
▁結果として	-11.6091
▁investidores	-11.6091
▁Duas	-11.6092
▁fã	-11.6093
▁cooperação	-11.6094
にすぎません	-11.6098
baixa	-11.6102
スイス	-11.6111
項目	-11.6114
ブラック	-11.6115
▁criatura	-11.612
▁一部の	-11.6124
フェル	-11.6129
とっても	-11.613
▁restaura	-11.6131
立っている	-11.6134
iedade	-11.614
▁estende	-11.6144
▁pinta	-11.6146
▁borda	-11.6152
▁beneficiar	-11.6153
工業	-11.6157
減り	-11.6157
への影響	-11.6159
渡す	-11.6164
中国語	-11.617
即	-11.6175
噛	-11.6176
▁Pacífico	-11.6176
▁assassina	-11.6176
▁transparência	-11.6176
▁triângulo	-11.6176
スイッチ	-11.6176
即座に	-11.6176
滴	-11.6176
芽	-11.6176
▁esperma	-11.6176
▁judeu	-11.6176
▁cristã	-11.6176
▁arquivo	-11.6176
▁limpo	-11.6176
▁geneticamente	-11.6176
▁indiano	-11.6176
侵害	-11.6177
RB	-11.6178
司法	-11.6178
教員	-11.6179
▁pontuação	-11.618
▁falámos	-11.618
Escolh	-11.6182
▁canais	-11.6183
▁impressora	-11.6184
ドレス	-11.6185
っちゃ	-11.6185
内戦	-11.6186
▁190	-11.6191
短く	-11.6193
▁最新の	-11.6193
教えてくれる	-11.6194
▁beneficia	-11.6199
▁Rob	-11.6207
Temos	-11.6214
レジ	-11.6217
気にかけ	-11.6222
見ています	-11.6226
広める	-11.6232
▁tentava	-11.6232
なくとも	-11.6237
たいと思う	-11.6238
▁vaga	-11.6242
取れる	-11.6244
写真家	-11.6262
障	-11.6263
敬	-11.6265
炉	-11.6265
勘	-11.6266
寂	-11.6266
綴	-11.6266
▁colheita	-11.6266
▁pescoço	-11.6266
イデオロギー	-11.6266
贈り物	-11.6266
▁idiota	-11.6266
渋滞	-11.6266
▁Ciência	-11.6266
▁arroz	-11.6266
▁invadi	-11.6266
親戚	-11.6266
オープンソース	-11.6266
Deixa	-11.6266
▁etnia	-11.6266
開催	-11.6266
安全保障	-11.6266
補助	-11.6266
▁balão	-11.6266
▁expuls	-11.6267
angari	-11.6268
知り合い	-11.6268
▁lobo	-11.6273
▁evoluiu	-11.6274
▁King	-11.6274
事象	-11.6276
に従う	-11.6276
ゆく	-11.6279
少なくとも	-11.6293
実感	-11.6295
辞め	-11.6299
Som	-11.63
目で見	-11.6302
全世界	-11.6305
遊んで	-11.6311
イヤー	-11.6314
cionista	-11.6315
倫理的	-11.6324
ユダヤ人	-11.6328
を利用する	-11.6329
臓	-11.633
魅	-11.6331
クリーン	-11.6332
▁empreendedor	-11.634
の名前は	-11.6344
言い方	-11.6351
剣	-11.6356
▁atribui	-11.6357
斜	-11.6357
tweet	-11.6357
▁acabámos	-11.6357
▁jornada	-11.6357
チーズ	-11.6357
マイナス	-11.6357
泊	-11.6357
胃	-11.6357
腫	-11.6357
NGO	-11.6357
ロバート	-11.6357
▁ONG	-11.6357
比喩	-11.6357
▁Naquela	-11.6357
洞察	-11.6357
▁horror	-11.6357
貯蓄	-11.6357
▁gangue	-11.6357
掛かり	-11.6357
▁pólen	-11.6357
▁Unidas	-11.6357
核兵器	-11.6357
▁beira	-11.6358
▁cuidadosamente	-11.6358
▁eletro	-11.6358
足りない	-11.6358
観念	-11.6359
▁discriminação	-11.636
結核	-11.636
を紹介し	-11.6361
入院	-11.6362
▁Super	-11.6362
虐殺	-11.6362
▁vasta	-11.6363
US	-11.6365
換	-11.6365
▁そうでない	-11.6366
安全性	-11.6367
▁instalação	-11.637
▁tecla	-11.6376
▁本当は	-11.6377
に過ぎない	-11.6379
なければいけない	-11.6394
Será	-11.6396
崩れ	-11.6406
天気	-11.6416
争	-11.642
▁confiante	-11.6421
借	-11.6423
いけません	-11.6434
▁従って	-11.6435
個別	-11.6436
避難	-11.6439
心の中	-11.6444
覧	-11.6444
ございます	-11.6448
免	-11.6448
疫	-11.6448
非営利	-11.6448
▁National	-11.6448
▁inconsciente	-11.6448
コロンビア	-11.6448
チョコレート	-11.6448
ピラミッド	-11.6448
又	-11.6448
症候群	-11.6448
脇	-11.6448
▁Prémio	-11.6448
▁abundância	-11.6448
▁amizade	-11.6448
▁consoante	-11.6448
▁critério	-11.6448
▁dependência	-11.6448
▁incidente	-11.6448
▁microfone	-11.6448
▁valioso	-11.6448
フィルター	-11.6448
漂	-11.6448
▁paisagens	-11.6448
憲法	-11.6449
承認	-11.6449
▁veneno	-11.6449
多大な	-11.6449
にさらされ	-11.6449
悪魔	-11.645
欲望	-11.645
決意	-11.645
合理的	-11.645
産業革命	-11.645
突然変異	-11.645
楽しんで	-11.645
▁imaginá	-11.6451
持てる	-11.6451
▁leões	-11.6451
missões	-11.6451
▁duração	-11.6452
▁lata	-11.6452
注意深く	-11.6452
を保つ	-11.6453
役割を果たし	-11.6455
の終わりに	-11.6457
▁separada	-11.6458
ソース	-11.6458
▁corretamente	-11.646
▁今回は	-11.6461
感知	-11.6462
▁fará	-11.6463
▁descar	-11.6469
同一	-11.6474
出会う	-11.6479
大西洋	-11.6483
受け入れられ	-11.6484
を失って	-11.6485
コメディ	-11.6496
一体何	-11.6501
を経験し	-11.6508
テント	-11.6523
可能になる	-11.6528
及	-11.6538
沢	-11.654
臨	-11.6541
LGBT	-11.6541
マンハッタン	-11.6541
同性愛	-11.6541
裕福な	-11.6541
豆	-11.6541
▁deixei	-11.6541
▁diapositivo	-11.6541
▁drasticamente	-11.6541
▁essenciais	-11.6541
▁excesso	-11.6541
▁incêndio	-11.6541
▁menciona	-11.6541
▁minúscula	-11.6541
▁Ártico	-11.6541
生み出され	-11.6541
第二次世界大戦	-11.6541
▁honesto	-11.6541
▁sagrado	-11.6541
▁agradecer	-11.6541
喪失	-11.6541
▁coletivo	-11.6541
▁enquadra	-11.6541
季節	-11.6541
▁estatuto	-11.6541
拡散	-11.6541
駐車場	-11.6541
バラバラ	-11.6541
▁turma	-11.6541
▁tortura	-11.6541
▁emocionais	-11.6542
地下鉄	-11.6542
▁perdida	-11.6542
▁oferta	-11.6542
結びつき	-11.6542
変わら	-11.6543
落とす	-11.6545
じゃありません	-11.6545
因子	-11.6545
▁aproveita	-11.6547
火山	-11.6547
明白	-11.6547
に住んでいます	-11.6548
何十年も	-11.6549
▁cobre	-11.6552
やる気	-11.6559
▁vital	-11.6563
curso	-11.6572
が原因で	-11.6574
似たような	-11.6581
呼びかけ	-11.6584
飼い	-11.6592
ないといけません	-11.66
思わない	-11.6611
全く違う	-11.6616
こともある	-11.663
理解しようと	-11.663
非常に重要な	-11.6633
緩	-11.6634
征	-11.6634
▁asteroide	-11.6634
▁crucial	-11.6634
▁diâmetro	-11.6634
▁fôssemos	-11.6634
▁inevitável	-11.6634
▁refeição	-11.6634
▁ressonância	-11.6634
▁simpático	-11.6634
▁tóxico	-11.6634
バッグ	-11.6634
廊	-11.6634
蜜	-11.6634
▁observá	-11.6634
キャラクター	-11.6634
繰	-11.6634
立派な	-11.6634
▁fosso	-11.6634
▁calhar	-11.6634
▁arranca	-11.6634
飛躍	-11.6635
▁実際のところ	-11.6635
▁luxo	-11.6635
夫婦	-11.6635
▁prospera	-11.6635
団結	-11.6636
▁tristeza	-11.6636
▁laser	-11.6638
▁vigia	-11.6638
多少	-11.6638
ループ	-11.6641
体温	-11.6642
服用	-11.6644
リンゴ	-11.6644
が起こりました	-11.6644
のではないでしょうか	-11.6646
生き方	-11.6654
Tens	-11.6656
万人以上	-11.6664
遺体	-11.6664
聞いてみ	-11.6667
▁divertida	-11.6668
ヴィン	-11.6674
AS	-11.6685
投資家	-11.6686
▁impor	-11.6693
恐	-11.6696
勢力	-11.6714
ジャック	-11.6722
謝	-11.6727
肥	-11.6728
均	-11.6728
嗅	-11.6728
廷	-11.6729
逮捕され	-11.6729
▁Continua	-11.6729
▁Humanidade	-11.6729
▁altitude	-11.6729
▁entusiasmo	-11.6729
▁episódio	-11.6729
▁hemisfério	-11.6729
▁histórica	-11.6729
▁laranja	-11.6729
▁secundária	-11.6729
▁supermercado	-11.6729
原動力	-11.6729
殺虫剤	-11.6729
気付く	-11.6729
_	-11.6729
▁ISIS	-11.6729
▁máscara	-11.6729
▁Banco	-11.6729
カロリー	-11.6729
高価な	-11.6729
▁protegida	-11.6729
1984	-11.6729
Black	-11.6729
診察	-11.6729
諸島	-11.6729
網膜	-11.6729
▁derrete	-11.6729
聴覚	-11.673
▁legado	-11.673
類似	-11.673
タイトル	-11.673
▁transmite	-11.673
▁concurso	-11.6731
素粒子	-11.6731
を促す	-11.6733
▁inovadora	-11.6734
▁elite	-11.6734
面白く	-11.6735
子育て	-11.6735
▁できるだけ	-11.6736
▁1999	-11.6738
ワット	-11.674
が大好きです	-11.6741
思いついた	-11.6744
深刻	-11.6746
止まり	-11.6748
親切	-11.6748
変化させ	-11.6748
を形成し	-11.6752
必要はない	-11.6763
子ども達	-11.6774
植	-11.6775
を避ける	-11.6779
ようになっています	-11.6796
事ができます	-11.6799
がちな	-11.6808
焼け	-11.6808
ことになるでしょう	-11.6809
学生たち	-11.6818
ヶ	-11.6821
自国	-11.6821
▁Antártida	-11.6824
▁Recentemente	-11.6824
▁desperdiça	-11.6824
▁diferencia	-11.6824
▁eletrónica	-11.6824
▁posterior	-11.6824
▁sofisticado	-11.6824
に基づいた	-11.6824
アフリカ系アメリカ人	-11.6824
メーカー	-11.6824
周波数	-11.6824
堆	-11.6824
ドラッグ	-11.6824
憂	-11.6824
阻止	-11.6824
つなぎ	-11.6824
▁origens	-11.6824
操縦	-11.6824
防衛	-11.6824
▁ignorância	-11.6824
武装	-11.6824
抑圧	-11.6824
判決	-11.6824
アルコール	-11.6824
快適	-11.6825
原油	-11.6826
障壁	-11.6826
やって来て	-11.6826
決まって	-11.6827
縮小	-11.6827
▁potável	-11.6827
近隣	-11.6827
優しく	-11.6828
▁それ以外	-11.6829
▁puni	-11.6834
いただく	-11.6835
▁tumores	-11.6835
▁そうすることで	-11.6837
数々の	-11.6837
分割	-11.684
気球	-11.6842
▁ninho	-11.6847
タスク	-11.6849
お伝えしたい	-11.685
休み	-11.6852
盲目	-11.6885
塗り	-11.6889
大多数	-11.6894
▁encontrá	-11.6903
ァ	-11.6907
ャ	-11.6909
ヴァン	-11.6914
出席	-11.6916
▁habitual	-11.6917
敗	-11.6919
嬉	-11.6919
胞	-11.692
係	-11.692
▁hidro	-11.692
飽	-11.692
▁Islão	-11.692
▁censura	-11.692
▁convencional	-11.692
▁corajosa	-11.692
▁feminino	-11.692
▁intuição	-11.692
▁isolamento	-11.692
▁neurociência	-11.692
▁papéis	-11.692
▁prosperidade	-11.692
ビッグバン	-11.692
ポジティブ	-11.692
主人公	-11.692
戒	-11.692
旦	-11.692
普遍的	-11.692
晴	-11.692
歓迎	-11.692
養殖	-11.692
▁Professor	-11.692
▁fraude	-11.692
獣	-11.692
馴染み	-11.692
frontal	-11.692
▁Dentro	-11.692
▁precoce	-11.692
タバコ	-11.692
▁suporte	-11.692
▁transformá	-11.692
▁urgência	-11.692
手伝い	-11.692
緩和	-11.692
高速道路	-11.692
帽子	-11.6921
隔離	-11.6921
化学療法	-11.6921
大幅に	-11.6921
技能	-11.6921
▁secreto	-11.6921
▁citação	-11.6922
集まる	-11.6924
▁deveríamos	-11.6926
電波	-11.6926
僅か	-11.6927
僕達	-11.6928
凄い	-11.6928
満たされ	-11.693
うまくいく	-11.6936
▁esmagado	-11.6936
▁Gene	-11.6947
▁surpreendido	-11.6954
▁pretende	-11.6957
ことが分かります	-11.6959
ように見える	-11.6964
▁músculo	-11.6965
直前	-11.6967
買う	-11.6998
食べた	-11.7004
だと思っています	-11.701
▁frequente	-11.701
▁psico	-11.7017
副	-11.7017
筆	-11.7017
ケーブル	-11.7017
SETI	-11.7017
marketing	-11.7017
nvergonh	-11.7017
▁aleatória	-11.7017
▁automóveis	-11.7017
▁currículo	-11.7017
▁gratuita	-11.7017
▁permitindo	-11.7017
▁racismo	-11.7017
▁resíduos	-11.7017
▁vulnerabilidade	-11.7017
三角形	-11.7017
勿論	-11.7017
影響を及ぼす	-11.7017
バイアス	-11.7017
究極の	-11.7017
Global	-11.7017
▁especula	-11.7017
つなげ	-11.7017
▁Vivemos	-11.7017
▁Percebe	-11.7017
▁ご覧の通り	-11.7017
▁inocente	-11.7017
▁paradigma	-11.7017
▁articul	-11.7017
掃除	-11.7017
▁precise	-11.7017
▁agulha	-11.7017
▁audição	-11.7018
冷却	-11.7018
▁互い	-11.7018
▁exerce	-11.7018
順番	-11.7018
助言	-11.7019
協会	-11.702
見いだ	-11.7021
限定	-11.7022
小屋	-11.7022
西部	-11.7022
自動的に	-11.7024
▁comunicações	-11.7024
患者さん	-11.7024
させてください	-11.703
投げかけ	-11.7034
▁1900	-11.7034
.000	-11.7035
使わない	-11.7058
目を向け	-11.7063
生息地	-11.7069
▁guar	-11.7074
話を聞いて	-11.7078
ヌー	-11.7078
主要	-11.7087
古代	-11.709
与えられる	-11.7095
を測る	-11.7097
しようとしている	-11.71
▁olhava	-11.71
▁Mark	-11.711
査	-11.7111
畑	-11.7115
▁Itália	-11.7115
▁Manhattan	-11.7115
▁desespero	-11.7115
▁fórmula	-11.7115
▁possui	-11.7115
▁romântico	-11.7115
きれいな	-11.7115
パイロット	-11.7115
フロリダ	-11.7115
北朝鮮	-11.7115
啓	-11.7115
▁automática	-11.7115
ガイド	-11.7115
人もいるでしょう	-11.7115
往	-11.7115
腎臓	-11.7115
を訪ね	-11.7115
▁Ébola	-11.7115
広大な	-11.7115
滞在	-11.7116
閉鎖	-11.7116
直径	-11.7116
客観的	-11.7116
協働	-11.7116
ブラウン	-11.7116
▁cauda	-11.7117
一生懸命	-11.7117
concebida	-11.7118
微小	-11.7118
▁habitantes	-11.7119
を支える	-11.712
主導	-11.7121
▁それ以来	-11.7121
▁piano	-11.7121
ítica	-11.7128
持たせ	-11.7132
をもとに	-11.7133
双方	-11.7135
歓声	-11.7135
聴き	-11.7135
治療を受け	-11.7139
わかっている	-11.7152
▁priva	-11.7165
ことが出来る	-11.7167
辞	-11.7177
の周りを	-11.7177
死体	-11.7186
運んで	-11.7192
諸	-11.7193
追いかけ	-11.7194
たいと思いました	-11.7203
知られている	-11.7204
ターゲット	-11.7214
▁assassino	-11.7214
▁clube	-11.7214
▁feminista	-11.7214
▁globo	-11.7214
▁grátis	-11.7214
▁magnético	-11.7214
▁tremenda	-11.7214
ふさわしい	-11.7214
腺	-11.7214
鯨	-11.7214
▁mutações	-11.7214
哀	-11.7214
▁penetra	-11.7214
模索	-11.7214
アニメーション	-11.7214
▁paradoxo	-11.7214
▁perfil	-11.7214
テープ	-11.7215
原子炉	-11.7215
エイミー	-11.7215
離婚	-11.7215
▁fingi	-11.7215
特権	-11.7216
▁àquela	-11.7216
生態	-11.7216
権限	-11.7217
横断	-11.7218
▁rabi	-11.7219
▁まだまだ	-11.722
バージョン	-11.722
願っています	-11.722
▁globalização	-11.7222
コンゴ	-11.7223
実在	-11.7236
カフェ	-11.7246
皆様	-11.7256
どんなものか	-11.7262
▁macaco	-11.7265
千万人	-11.727
ない限り	-11.7276
本来の	-11.7291
唱え	-11.7293
著者	-11.7293
▁inovador	-11.7309
ウガンダ	-11.7314
パレスチナ	-11.7314
ロサンゼルス	-11.7314
些細な	-11.7314
芝	-11.7314
鶏	-11.7314
▁considero	-11.7314
▁doloroso	-11.7314
▁eletrões	-11.7314
▁gabinete	-11.7314
▁golfe	-11.7314
▁reflexo	-11.7314
▁álcool	-11.7314
プランクトン	-11.7314
▁óculos	-11.7314
および	-11.7314
リアルタイムで	-11.7314
▁ideologia	-11.7314
企画	-11.7314
ぴったり	-11.7314
ómetro	-11.7314
採掘	-11.7315
存続	-11.7315
大臣	-11.7315
進展	-11.7315
宿題	-11.7315
誘惑	-11.7315
▁Estive	-11.7315
複合	-11.7315
楽観的	-11.7315
▁permita	-11.7315
演劇	-11.7315
相関	-11.7315
▁Escola	-11.7315
▁milénio	-11.7316
スペイン語	-11.7316
▁disposição	-11.7317
終わって	-11.7317
有罪	-11.7318
▁desenvolvida	-11.732
率直	-11.7321
不能	-11.7321
▁morais	-11.7321
に違いない	-11.7322
案内	-11.7326
▁grito	-11.7326
▁dedicado	-11.7326
なかで	-11.7329
食べられ	-11.7332
覚えてお	-11.7337
直面し	-11.7354
歩道	-11.7355
を卒業し	-11.7357
祈	-11.7361
▁percorre	-11.7377
quist	-11.738
震	-11.738
行かない	-11.7393
頑	-11.7393
に感染し	-11.7402
どこにでも	-11.7404
▁infeliz	-11.7408
を使用し	-11.7413
全く新しい	-11.7414
催	-11.7415
永	-11.7415
忍	-11.7415
呪	-11.7415
▁Stanford	-11.7415
▁anatomia	-11.7415
▁prolonga	-11.7415
▁sofisticada	-11.7415
▁vegetais	-11.7415
クリエイティブ	-11.7415
フェミニスト	-11.7415
砲	-11.7415
著作権	-11.7415
▁chocante	-11.7415
▁concretiz	-11.7415
▁intervenção	-11.7415
▁transplante	-11.7415
解剖学	-11.7415
▁ONU	-11.7415
▁incomoda	-11.7415
喫煙	-11.7415
▁descobre	-11.7415
▁implanta	-11.7415
▁Criámos	-11.7415
やりとり	-11.7415
▁empréstimos	-11.7416
▁aceder	-11.7416
▁ご覧のように	-11.7416
収益	-11.7416
嬉しい	-11.7416
▁propens	-11.7416
依存症	-11.7416
▁Nenhuma	-11.7416
▁versões	-11.7417
▁cubo	-11.7417
▁desconhecida	-11.7418
大事なこと	-11.7418
兆ドル	-11.7418
最先端	-11.7419
フランス語	-11.742
書類	-11.7421
▁mostrá	-11.7421
▁Park	-11.7422
チューブ	-11.7426
唯一の方法	-11.7435
先端	-11.7437
構いません	-11.7441
驚くこと	-11.7444
受信	-11.7448
尽き	-11.7451
手続き	-11.7459
▁vendedor	-11.746
▁Chega	-11.7482
▁flui	-11.7494
虐	-11.751
結局	-11.7513
Envi	-11.7515
池	-11.7517
攻	-11.7517
キッチン	-11.7517
▁autoestrada	-11.7517
▁biodiversidade	-11.7517
▁obcecado	-11.7517
▁pandemia	-11.7517
エドワード	-11.7517
コンセプト	-11.7517
苛	-11.7517
郡	-11.7517
▁compromete	-11.7517
磨	-11.7517
苦しむ	-11.7517
▁Cinco	-11.7517
スマホ	-11.7517
エリート	-11.7517
▁consome	-11.7517
▁devolve	-11.7517
▁esquema	-11.7517
運ばれ	-11.7517
▁suspens	-11.7517
兆候	-11.7517
▁critica	-11.7518
▁concerto	-11.7518
▁seleção	-11.7518
収縮	-11.7519
著書	-11.7519
▁bombarde	-11.7519
動脈	-11.7519
ショップ	-11.7519
探査機	-11.7519
報告書	-11.752
▁dê	-11.752
当局	-11.752
▁Jim	-11.7524
▁fusão	-11.7524
▁Sub	-11.7525
になろうと	-11.7528
実証	-11.753
パパ	-11.7536
予期	-11.7542
コール	-11.7545
▁questiona	-11.7546
非暴力	-11.7549
完	-11.755
買い物	-11.7554
▁educado	-11.7557
▁zoo	-11.7565
相対	-11.7573
▁submet	-11.7574
▁orador	-11.7576
▁detetor	-11.7579
論理的	-11.7584
多様	-11.7587
▁これ以上	-11.7617
Talvez	-11.762
了	-11.762
裕	-11.762
邪	-11.762
トランス	-11.762
#	-11.762
Acabei	-11.762
▁cogumelo	-11.762
▁helicóptero	-11.762
▁invulgar	-11.762
▁reprodução	-11.762
▁típico	-11.762
シンボル	-11.762
札	-11.762
託	-11.762
iPod	-11.762
▁declínio	-11.762
▁idioma	-11.762
▁pacote	-11.762
▁uniforme	-11.762
冷蔵庫	-11.762
模倣	-11.762
考古学	-11.762
▁direções	-11.762
▁tijolo	-11.762
ヒッグス	-11.762
▁previsões	-11.762
身の回り	-11.762
スコット	-11.762
特有の	-11.762
錯覚	-11.762
▁ironia	-11.7621
▁psicologia	-11.7621
▁engoli	-11.7621
酵素	-11.7621
▁separação	-11.7621
▁encantado	-11.7621
信条	-11.7621
加わり	-11.7621
▁configur	-11.7621
遠隔	-11.7621
敏感	-11.7621
▁largo	-11.7622
済む	-11.7623
▁gostaríamos	-11.7624
様式	-11.7624
の一種	-11.7626
時間をかけて	-11.7626
賭け	-11.7626
▁relata	-11.7629
切り替え	-11.763
▁pressiona	-11.7632
騒音	-11.7633
頂点	-11.7639
優秀	-11.7641
▁pasta	-11.7641
テッド	-11.7641
▁brutal	-11.7644
責め	-11.7678
nny	-11.7682
を例に	-11.7687
▁もうひとつ	-11.7699
蓄え	-11.77
どうなっている	-11.7701
見逃	-11.771
▁volte	-11.7715
保障	-11.7724
請	-11.7724
ジェームズ	-11.7725
ハリウッド	-11.7725
緯	-11.7725
▁Começou	-11.7725
▁Higgs	-11.7725
▁camiões	-11.7725
▁indígena	-11.7725
▁simplific	-11.7725
▁suicídio	-11.7725
ドライブ	-11.7725
ポンド	-11.7725
仏	-11.7725
棲	-11.7725
湧	-11.7725
猛	-11.7725
蓋	-11.7725
譜	-11.7725
▁Golfo	-11.7725
▁cartões	-11.7725
▁miúda	-11.7725
▁secretária	-11.7725
たまたま	-11.7725
間違え	-11.7725
▁insisti	-11.7725
思いつきました	-11.7725
▁terramoto	-11.7725
▁Senhora	-11.7725
描写	-11.7725
▁slide	-11.7725
交尾	-11.7725
▁sexta	-11.7726
ラクダ	-11.7726
伝説	-11.7726
祖父母	-11.7726
釣り	-11.7727
ありえない	-11.7727
選べ	-11.7727
基地	-11.7727
航海	-11.7728
▁promete	-11.7728
立ち上がり	-11.7729
掛	-11.7729
▁parcial	-11.7729
方針	-11.7729
薬剤	-11.773
corrido	-11.7731
曲げ	-11.7732
モーター	-11.7733
▁justa	-11.7738
を着て	-11.7738
▁densa	-11.7747
大気中	-11.776
無数の	-11.7762
▁consiste	-11.7778
▁confia	-11.7782
▁átomo	-11.7786
を犯し	-11.7801
遇	-11.783
▁Etiópia	-11.783
▁carácter	-11.783
▁cruel	-11.783
▁energética	-11.783
▁entretenimento	-11.783
▁estreita	-11.783
▁inglesa	-11.783
▁janeiro	-11.783
▁joelho	-11.783
▁membrana	-11.783
▁morrido	-11.783
▁possuem	-11.783
▁primavera	-11.783
▁sanguínea	-11.783
▁残念なことに	-11.783
ウィリアム	-11.783
剥	-11.783
温室効果ガス	-11.783
▁tradução	-11.783
ユニーク	-11.783
叶	-11.783
渦	-11.783
謙虚	-11.783
頭蓋骨	-11.783
▁ficheiro	-11.783
▁cartune	-11.783
▁ícone	-11.783
あんな	-11.783
▁gelado	-11.783
圧倒的	-11.783
▁betão	-11.783
▁grelha	-11.783
帰宅	-11.783
西欧	-11.783
▁reparem	-11.783
▁envolvimento	-11.7831
狩り	-11.7832
▁educar	-11.7832
誠実	-11.7832
▁preferência	-11.7833
ドラム	-11.7835
同等	-11.7836
読み書き	-11.7836
ドローン	-11.7836
を深め	-11.7837
▁deteção	-11.7837
▁complica	-11.7838
自覚	-11.7838
▁derrota	-11.7841
替	-11.7849
下がって	-11.7852
▁mudá	-11.7854
命を救う	-11.7862
飼	-11.7878
存在しません	-11.7896
▁Muita	-11.79
のをやめ	-11.7912
廃棄	-11.7917
索	-11.7931
ナショナル	-11.7936
城	-11.7936
鑑	-11.7936
霊長類	-11.7936
▁Hollywood	-11.7936
▁Valley	-11.7936
▁autónomo	-11.7936
▁fabrico	-11.7936
▁magnética	-11.7936
▁monstro	-11.7936
▁primária	-11.7936
▁rituais	-11.7936
乾	-11.7936
具体的に	-11.7936
医薬品	-11.7936
瞑想	-11.7936
DVD	-11.7936
▁infeções	-11.7936
▁tronco	-11.7936
研修	-11.7936
ミルク	-11.7936
▁crónica	-11.7936
▁aparência	-11.7936
[...]
